1111111011001000
101010110
100000110
1111111010100110
100100011
101001011
10110100
110
10110011
1110011
1111111101111001
11110111
101000100
1111111101001001
1111111100100101
101111101
1111111010101011
1111111011101111
1111111100111000
11110110
1111111011111010
1111111101101111
100101111
111001
1111111011111110
111001
100100100
1111111100101101
100010101
1111111110101010
10001000
1111111111110000
1111111101000001
101001
10010101100
10000110001
10110000001
10010001001
1101010011
11111110011
101100010111
1011000
1111010010100000
1111010110100111
1111001010101010
1111010100111000
1111111010110101
1011100010
1110101011
10001000101
10101111011
1010010010
1011
1111111010101000
1010100
100101000
1111111100111111
11011010
1011001
10001110010
100000001110
10010001
1000001100
1111100111001001
110001111110
101010110110
101110110010
11000111001
1111101010100101
1111000000011110
1110101111111100
1110111010000100
1111011001010010
101010110110
1001011001001
1001001000101
100110010001
10111101010
11100000111
100110100100
1111111111100100
100111011
101010101
1111111100110011
1111111111100111
100011
1111101010000001
1111111011010101
10000111101
1111100110111010
1111110100011110
1111111111000010
111000110010
10111110010
100000110000
1001101
1111011110010100
1110111111011001
1110100111010010
1110111001011110
1111001111000100
11001110110
110000111111
11010101111
1111101101000010
1111100011001111
1111011010010001
1110010111
1000100011010
11101000000
100101111001
10111000
1011101
10110
1111110000010111
1111101111111011
1111111001110111
10101101110
1111100111011110
1111111111011110
1111101010011111
1111110111111101
1111101001101101
1011111010
10011101010
1111110101011111
1111110101000111
1111111100110101
11000001011
110011100
1011000100
1111111011010010
1111100101001000
1111101001101000
1111100011101000
1111101000111010
1111101001111000
1100110000
100001010000
1111110110011101
100111101
1111111011111110
101001010
1111110110101111
1111110111000110
10010000100
10000000
101010100
1111110111010010
10000111001
11110111001
1010100001
110001100
1100100
1111001
1111111101101001
100110000011
100000010111
11111001011
10010111010
101111010
11001111
1111111100000010
10011000
1111100011110100
1111101110001001
101100010101
11111010011
10011000
1011010000
1011111110
1111101100011001
1100001100
1111111000010101
1111100111001010
1111101101111101
1111111110011111
100001101
1111110111100100
1111110101000001
1000001111
10100111101
1101111110
1111101101
1111111001010111
1111101010111000
111001101
11011001101
10000100000
1111111011100101
101000
101001010011
101011000111
100101110001
110011000111
1000111
1111110100111111
10000100011
1111111000110101
1111010001011101
1011000100
1011001011
1111110111001101
1111111001011000
1010001
1111111001001000
1000011110
10101110111
1100001101
1111010000
1011010001
10110111
1111110011011100
1111100011100010
111101
1000110
1000111000
1100011111
100101000100
101011111000
110100110100
100101011000
100001101001
11000000000
10011101010
1111110111001000
1011101001
101010
111010000
101100101
1011110111
1111111110010100
11
1111111101011011
1001101000
11100011010
10011101101
1010111
1111110000100000
1111101100100110
10110011
1111110101001010
111101100
1001111101
101111100
10100001100
101100110100
100001000001
1000100110111
10101100101
100110010011
1111110101110110
1111111010010010
1110101011001000
10100000001
1111100110111001
1111111001101110
10001111110
111111110
1111111011110101
1111111111110101
1111111111000100
11111
1001111110
1111111010110110
1111101101100000
1111011110100011
1111010001101001
1111101010011010
1111111001001011
10110011
11011010100
1000011100
1001011100
10011110010
10111010101
100010001000
111010110100
100011011001
1111101100100110
11100111
1110101101010010
10111
1111100111111100
11110001001
1010111001
1110001110
1000110110
1011000110
1111110111100100
1111100101011011
1111110000000001
1111110001010101
1111111101001011
1111101000110010
1111011011011101
1111101001000111
1000000101
1111001110
100001011110
100010000011
1010001001
10010101111
100111110011
110110110001
100111111100
100101000101
1111100000100010
1111101100100010
1111000001001000
1111111110101011
11001101
100011010001
1111111110010111
11011011100
1111111011100100
1111111011011110
1111101010000110
1111100101000010
1111100100100010
1111101100101000
111011101
101101010
1111011110011100
1111101001001001
1111110001001011
10000110111
100101000011
1111111011111110
101111100
1111101110111011
1111101101001110
1001011101
11101111000
10111101110
1111101011011011
1111110010000010
1010101000
10101101101
1011011110
10000100
1111111001100110
1111101010000101
1111111000101000
1111110001111010
1111101111001011
1111110000010111
1111111101010000
1100010000
100011111111
10011011
1111011100011101
1111100000101011
1111101010011010
1111111001001011
1111111001111000
1111101001110011
1111011011110101
1110101111010110
1110110110100001
1111110011110001
110101011100
110111010010
1111101111001111
110101100
101000111110
10110001111
1101000000
1111110001000111
1111100001101110
1111000111010111
1111101000111110
1111110101100110
1111101101111010
1111111001010001
10101000000
11111010110
101001011010
1100010
1111101101010100
1111011011000001
1111100110011011
1111111111011000
1111110100111010
1111100011110011
1111100001000010
1110100100110010
1111000100010111
1111001011000111
11111010000
100011110010
11001000111
11100001111
1101111100
1111100011110000
1111011000110101
1111101010001010
1111101011100110
1111011011111011
1111101110100011
1111100111011010
1111101100100001
1101101001
101110100010
110001101011
10000001010
1111111110000111
1111100011101101
1111001111011011
1111100101011100
1111110100111011
1111100111100011
1111100110100110
1111101011100101
1110101111011001
1111011001010111
1111001010111100
101001
11111010000
100001000101
1011111111
101101101
10100010001
1111011100100011
1101110
1011101
1111111110001000
11001100
1111101001001110
1111111000110100
1111001
10110001100
101011000101
10010111011
1111110110110011
1111100110110100
1111100000100100
1111111000010001
1111111011100110
110001010
1111101011000101
1111110111010011
1111011011110000
1111100001000000
1111110101011000
10110011010
101110110010
11010101011
1111100101111100
1111100101101001
1111110001011111
11010100111
1111110101000010
11001100000
10110000
11111110
11001110011
11000011011
1010101000
100000010010
100110011011
1111111101001111
1111011010110000
1111101010010000
1111011110011100
10010111100
1010100010
1010000000
1111100110110001
1111111110000110
1111111010110110
101001011010
1111111111100011
100110100101
100010001010
10001111111
11101100
1111011000000110
1111111011
101011010110
1100111101
101000110000
1011001110
1000100011
10001000000
10110000111
11100111101
11110100000
1001000
1111010011110000
1111010010011101
1111100000010000
1111111011110011
1111111100
11110011100
10110000001
1111111101001101
10001110110
1111111011010101
1111111001001011
1111011001110100
1111100010101110
1111100101101100
11000110101
1111010101010011
1111101001001010
10100001010
110011111111
1000001010101
110011101001
100000111111
100110001001
10110011110
1111111
110000100
1111101101001011
1111010101010000
1111000110100000
1111000111100101
1111011111110001
11011000
11101110100
10000011100
10010010100
1000011110
10000011001
10001100110
1111111000100011
10001010000
1111111010111111
1111001110010110
11111011100
1111110100111011
10100000111
101001111100
100011000011
110100011111
110011001011
101001011001
1111000100
100001001001
110100111
1111111111110010
1111010010010111
1110111100001101
1111001101111011
1111100011011110
1111111001001000
1000111110
10011101101
10101110011
10101100001
11000101
10100100000
1101011011
101011010000
110001101110
101011101
1111111111111010
1111110010111101
10100
11001001001
100011010110
101110001110
111010110111
101000100001
11011100011
1111111010110000
1100101110
10100111011
1111100100011011
1111011100110100
1111010011101110
1111110000101101
1111011001001011
110011110
1111111100010010
1111110111010111
111010011
1100011100
11001110000
100100110110
101100000000
1000011100000
100110111000
11011000110
1111111100100110
1111111010001010
1111110101011001
1101101010
1111110001000010
111010101110
110111111000
10100011011
10110001010
1110110101
11010
1010111000
1111110100011000
1111110100111000
1111110011100101
1111111101000100
1111110000111001
1111101010010010
1111100011010101
1111101011011010
1111111001111011
1111111101000100
11111100010
10111101101
101110111110
111101000100
10101011011
101101100111
101101110010
110110111
1111110001111000
1111110000101011
1111101100110011
110000110
100011111001
11011001
1100011110
1100100101
1110001010
1111111011000000
1110001100
100000011010
100100100100
1110100000
1111101100101001
1111111101000010
1111101111010010
1111110100000101
1111100101011001
10100001
100001111
101010101001
100011101011
100101111110
1111011110
10000000001
11101011111
1001110011
1111111100110100
1111111110011001
1010000
111111000010
1110100000
1100000001
1111110110010010
11110110001
101001011100
10110010
100101100101
110100100101
100111001111
100111100011
11011111001
10100010100
1111011111
10100011
1111110101000001
111000
1111100111010111
1101101011
101001100
101101000110
10110110
10111110100
1111110011001011
1111111010111100
1111111101000001
1111111100001010
1111101010101000
1011010
1111110001011000
1111101010110001
1111111111100110
10111001100
11001101110
1011110100
1011101001
100101101010
111100100000
101100101101
11000000100
11111111001
111000100111
11100000111
11101100011
10011001000
1111101100010100
1111100000110010
1111100111100111
1111110000110100
1111111100001111
100111100000
1111100100011110
100011
1111111111110010
1111111111100111
1111110110001100
1111010110111101
1111001001100011
10101111
10000101110
110100111
100000100
11101111111
101101101011
110110001101
111101101100
101100001101
1100000101
100011011111
100110110001
11001100110
100101001010
101111111111
100110001011
101001001
1100011101
110101011100
1101101100
1111110110000101
1011011001
11101100
1101111
10011000
1111111110001000
1111101011001111
1111010000000001
1110111101001001
1110001011100011
1111101110111001
1111101100011001
1111100111011111
100111101
1000001111
101001010011
100001110100
1111110011000110
1111110111001101
11111101
1101000011
10110011110
101001011111
11001010101
1111110011000111
11101111000
1111010011000100
1111100010100001
1111111000011100
1111111110000010
1111111011101111
1111111100101110
10010011
1111111110001011
1111111101110000
1111110111100111
1111110100100010
1111100110101100
1111011110011000
1111001100000110
1110000101100000
1111110011000111
1111111111111010
1111111010011010
1111110100010110
1110100010101011
1110110100100010
1110010110000010
1110011001001101
1110110110111011
1111001010011010
11000010110
11011001001
101100110
1111101000111011
1111111101110100
1111111101100000
1111111100101101
11111100
