11111
1111111010110011
1111111111111001
1111111101100110
11101000
100001000
1111111111001010
11001000
1111111011011110
10111010
1111111101110100
1111111011111000
1111111101110101
1100000111
1110001100
110001001
100101
1111111101100010
1111111011101100
1111111111000011
1000101
1010
1111111011100010
1100000
1111111011101010
100011000
1111111110111111
10010101
100101011
100001111
1111111111110100
1111111101000100
1111111001101110
110101110
10111110101
1101000001
1111111000100100
1111111100010111
1111101110110110
1100011101
1000100001
10110001
1001010000
100001100111
100100101100
10110101101
1111101010110001
1111011111110110
111101010
1001111101
101001010001
100110111111
1111111100101100
1111111011111000
10000100
1111111111101010
11011110
1111111111111010
11011
10000001101
11010100000
1111100001001100
1111100000001111
1111001111100100
1110110101111010
1110101000110100
1111010010100010
1111011101010111
1111010111000111
1111101100100100
1111100000111011
1111001110000101
1111100100000001
1111100000010001
1111101001110001
1111100101001111
1110001110110110
1110101001010110
1111011011101100
1111111110001010
1111111100110001
101000010000
1111111101010000
1111111100100011
1111111101101111
1111111100100111
111000100
11010100001
100100100100
1101
1111110111011001
1111110110101101
1111011000111011
1111101011000001
1111110010011101
1111110001001110
1111111010111000
10001111000
11000010001
1001010101
1011111101
10000111000
1111110100101001
1111101110000010
1101011000
1111111001101011
1111001100101110
1111010100111000
1111100001011000
1111111111101101
11110000101
1111111111100100
1111111011101010
100100100
1111111111010001
101110110000
1111111011110011
1111111010110011
1111000111101001
1111001011000100
1111001110100000
1111110111100111
1111111110100101
1010110001
1111111101100110
1111111111011011
1111111111111110
100001001011
10001001010
1100000101
1100010101
10110000101
1111
1111100010111010
1111011001000110
1111110011001010
1111011111010000
1111010000001111
100000010111
1111100001011001
100011011
10110111
1111011111010001
100101000110
1111111011110100
1111001011010010
1111111101101011
1111101010101101
1111101001111011
1111110011001000
1111100011101001
1111111100110001
11010010
11000110
1111111101001110
1000010
1010001010
10101011
1111110111001001
1101111
1111110101011001
1111111100011000
1111101010000110
101001100
1111110011100001
1111101000001100
1111101011110111
1111100001010011
1111111110000111
1111111000100010
100111110
100000100010
11111101101
1111100001111011
1111110010100101
1111111011010000
1111101100101010
1111001001100111
1111010110010111
1111111111010101
1111101011
11101110
1111110011001011
1111100011001010
1111101010101101
1111101111110101
101011011
100000100000
1111110110101001
10100111111
1011110100
111010011
101101110
1111011010000110
1011101001
1111101100011110
110011110
1000110010
1111100101010000
1111001000
11011100011
1111111101000010
1111111010111000
1111111110101101
1111101010101110
1111100000100011
1111100111110010
1111101100111001
1110111101
1111101010111100
1111110110001000
1111011110011111
1111100001110001
1111100000100010
1111110010100111
1001111010
1111011010001100
1111110100111101
1111100100101101
10000100101
1111110101010101
1111111001110111
1111111000010110
11110011
1111111000010001
1111011111
1111100000010000
11101001010
1000000010
10000000001
10010010010
1111111001100101
1111101011011111
1111101010110000
1111011001110110
1111001001101000
1111101001111011
1111100110000000
1111111101101111
1111110110011001
1111110110101101
1111111011010010
1110011000
111001000
1101101001
1000111010
10000011
10111111001
1111111001011100
1111111010110100
1111111110001101
101010100000
1110101
11100111010
1111100001000011
1111100111100010
1111110011111001
11011011101
11001100110
1111111000111011
1111100100011110
1111100111101011
1111011010010001
1111011000010110
1111100100111110
1111111101110010
11011000010
11011011110
11101011000
11010001111
1101001001
1001100101
1001101110
1111110110100101
1111111001011000
111100010
10001000001
1111011011
1111111100100100
1000010001
100011
10101101011
1100011111
1111011101111101
1111110101111000
1110010011
10001111000
1111111000000111
1111101101111100
1111111110011010
1111111001010100
1111111111100001
1111111101101010
11000101001
11000111011
10110001100
10101100011
1000101100
1010001001
10101011000
1111110110001111
1111000001
1011110
1010100111
1001001111
1011101011
10011000110
100110010101
1111111100001011
10110111000
10101101000
100110000011
110011101101
10000110010
1001111110
1000101101
1111111100100010
101000100
1000011
111111101
1111111011010000
10111001100
11100001000
11011100011
1111111011100001
1111111100001000
1010100010
1110100001
10011110100
100000111
1011010101
11010011011
100101000111
1111110111000011
11101011010
111010010101
11101101110
100101011011
11111110001
11000110001
10011101101
1001001000
1111110011110001
1010010101
1111111000
10011101001
110111110
1111111111011111
100001000
1111111100110000
11100000100
110100010
1111111001101111
100111101
1100101
1011011101
10011101101
1111111011001010
10010011100
1111011110
111101100
11001111011
101101001110
100000100111
10100100101
11001001111
101011101000
11001001100
101100110011
100011001100
110110010
1000111010
1000101001
10010011011
11000000
1111110101000000
1111110000010111
1111011010010110
1111111111110100
1111011010100011
1111110011001100
1111110001000001
1111111010000001
10001011000
1011001100
10101110011
1111111000000101
1000001
1111110100110000
1001001101
101011
1111110000001010
110010
1101001111
111001000001
10001000000
10001011
11111111110
10000000
1111101000000010
1111111100100101
10010111
1111111101010011
1111110001001001
1111010100100100
1111011110100110
1111100110001110
1111011010010011
1111011100111111
1111100010011111
1101
101110101
1111110111101101
1111111001110110
1111111011110110
1101100110
110101011
1111110110001111
100011110110
1111110100010101
1111101111100111
10010000101
1101001010
1111101001101100
10011011011
10101111111
10000011001
1111111011100010
11100111
111000001
1111110000100011
1111011011111010
1111001001100011
1111000100100010
1111100001110011
1111100100101001
1111011110111001
1111101011110100
1101101110
1110010011
1110000
1111101001111110
1111100000000111
1010000011
11011001101
110011011
101011010000
1111101111011100
1111110010001110
1111110011110111
1111111111010111
10000010001
10011111011
1100100101
11010111
1111111100011001
1011111101
1111111111100001
1111100101010001
1111001001000001
1111000101001100
1111011010000100
1111011000111010
1111101000100001
1111110101111111
1111111100100001
1111000111
10101101
101011110
1111101101001001
1111011010000111
100000010
1111100101001001
1111011010011111
1000000
100110011100
1110000
10011100111
1111010110110000
101100111110
1111111111111110
11111111011
1101001000
10001101111
1111111101000001
1111110010100001
1111101100011000
1111110001010111
1111101000101101
1111101010010011
1111100010111111
1111110011010000
10010000001
1101100001
1111111000000000
1111111011110100
10111100
1111100110101000
1111110111011010
10101100111
1111110010010011
1111110100111010
1111110111100100
100001010111
10001001101
10000100010
1111011111000001
10001010001
1111111011111111
11010111111
10000010011
11100110101
10110111001
111101010
1100000
10011000
1111110111011111
100101100
1111110100011010
101100111
10000001
1001110010
1111111101101010
1111110101010110
110010101
1111111010010011
10101011
1111100100000100
1111110000111010
110100101110
1100111010
11000110111
1011101110
110001000110
1100010
1110111110
1111111010011010
10100011111
111100000
111011010
110111000
10010011110
1111110011110101
1111101111001001
1110001110
11111100011
101110110
1111110111100110
1111100100100100
1111110000010111
1111110110110011
1111100001010101
10100111
1111011101100110
1111011110000011
1111010101110011
100100001
100100011101
10111100111
111000001
1111111111100000
11111100001
1111110100010001
1111110111010100
1111101111011110
100010001111
1111111010101110
1101101100
101000110
1111111011100111
1111111011101100
1101101101
11101110101
100001111001
1101101000
1111111111001000
1111011001010111
1111011100100010
1111101111111010
1111011110111011
1111011000001011
1111001110111010
1110111001000110
1110111110100111
111000101
1101111111
10111101001
1111111010101111
1000000000
1111011100010110
1111110101101101
1111011010101001
1111010010011000
1111111011011110
110011011
10111000
1111110000100110
1111111100101010
100010001
1110101110
101001110
111111111
1111110100011100
1111100101011010
1111011000111111
1111101101010001
1111110100101001
1110111100011011
1110111000111001
1110111011100001
1110100110111000
1111000111111101
11010000100
1111110111000100
101100110100
10111100100
1111111110011010
100010100
1111011110110110
1111011011101100
1111001010111011
1111000011000111
1111110111101111
1110100001
1111110110101110
1110101010
100010
1111110000111111
110011110
1100111010
1000101011
10001101110
1111111000011011
1111110000001101
1111011110101001
1110100110010001
1110110001011101
1110011111101110
1110100101111101
1111000000010100
1111010111111001
111001100
100100101010
11000100110
1111111101001111
1111111011010001
10111111
1111010101110011
1111100110010000
1111010011110011
1111100000101001
1111101101111110
1101001101
1110110111
1001011110
110010011
1100110110
1111111011001100
1011001111
1111111100000011
1111010101111000
1111101011100101
1111010011001011
1110101101010100
1110111000011010
1110110010100010
1110100001110100
1111010000010111
1111101000000111
11011100101
100101111010
1000001
1111111101001010
1111111111010101
1111101100100100
1111100100011101
1111110001101000
1111111001000001
1111011011010011
1111100011111000
1111111011111111
1111011010111000
1111010011000011
1111011001110010
1111010010011010
1111111110100001
1110010111
1111110010010111
1111000111100110
1111001000011110
1111011001001111
1111000011101000
1111010010110010
1111011011100100
1110011111010000
1111011111110100
1111100110010010
1111011101000111
1111111011011000
1111111011100000
100001101
1111111011010111
1111101000100011
1111101100111001
10101101
10001101111
1111100111001011
1111110011101101
1111100100010100
1111011101010111
1111000101111010
1111011000101000
1111100110101001
1111111101101100
100001001000
1111001
1111101100000000
1111000000000011
1111011011100111
1111001010111011
1111111000110010
1111001100001010
1111001100010001
1111101100001111
11000101010
1111101011011010
1000101001
1111111111011011
1111111111111110
1001001
1111111010111010
1111101011101100
1111010111001001
1111011101101010
1111000111010101
1111100101111010
1111110111010111
1111110100101100
1111110010011000
1111111001010011
1111110110111000
110001101
1111011111100101
1111100001011011
1111111111100001
1000010001
1111111111011110
1111110111110110
1111011110011111
1111011010011101
1111111
11110110111
1111110001101110
1101110101
1111111101010101
1111111101011011
1111111101000010
1111111100001001
100010
11001010
101010100111
100101100011
1111110100110011
1111110111011000
1011011010
1111110111010100
10000100101
1111110000101000
1111101010010011
1001000010
1111101010110111
1111010100100010
1111100100111011
101000001
1111110000110100
10101110000
1111101110011011
1000001100
11011000111
100000100
1111111100100001
1111111101010110
111010
101011110
