10011111
1110101
1111111101000010
1111111111001110
1111111011001001
11100010
1111111011110111
10010001
110100
1111111101100010
1111111110011011
1111111110110001
100001101
1011110011
100000101
10000010
1111111100101001
1111111100001111
1111111100100100
1111111011100110
1111111010110010
1111111011111010
101001110
1111111111111000
1111111110111010
10001100
10110000
11100000
100001011
100111110
10000111
100110111
1111111001100010
1111111101001000
100010001110
100001000000
10101100010
100110101000
101101111001
1001010000010
110110001111
1111111111000110
1111001110000011
1111010110111010
1111011000000010
1111110011000010
11111101011
10001101110
11010110001
10001101010
11101110000
10011000101
1111111101100001
1111111100010100
1111111010100001
1111111110001100
11011010
11010110
1111111111101000
1100110100
1111101010010001
1111100111001111
1111011101000011
1111110110101101
100001111110
101001110100
101011
10011100011
1001000001011
100100101111
1111111010001001
1111101110011001
10011100
110000111111
1000010110010
1010011
1111100001011000
1110110001101000
1111101001110000
110011
1111111001010000
11101101
11101100
11011010
100010000
101001010
1111101000000110
100000100100
100001010010
1111111001100001
111101110
1111011110111011
1111111001111101
1111110100000010
1111011011010111
1111101110001111
1111101010101010
1111111001111101
1111110111001010
1111110011010111
1111111111110011
1111110010101101
1111111010111011
100101000010
100010100
1111101110010101
1111011011110100
1111011011010011
1111101110111111
1111011100001010
101101010
1111111110111100
11010011
1111110111110111
1111101011111110
1111110111100000
100100000010
1011101110
1111111010101001
10001010000
1111011100101011
1111100000110001
1111101000001010
1111110010010001
101000101
1110001111
1111110001111001
1111101001101010
1111010111011000
1111011101100010
1111101111111001
10101111110
1010111111
1111110011100000
1111010001101110
1111011101001010
1111110000000001
1111100010010010
1111010001000111
1111100110100000
1100110
1111111101101100
1111110011011001
101010101010
101000101101
1111111000111011
1001000010
1111101011110001
1111110000111111
1111101010101011
1111111110000010
1111110000111011
1111111001100100
1111110001111100
1111111000010110
1111111011111110
1111110110001001
1111100010001000
1111100111101001
1111011111010111
1111101110100111
10010100101
1111111100011010
101010100
101000000
1111011011000101
1111101011001011
1111110000011011
1111111101011000
100100110
10000100001
101110010011
110011001011
1111110111111101
1111101010000010
1111101101001001
1111110010100000
1111100110100011
1111110100111111
1111101001101101
1111101010010101
1111011001001111
1111001011110000
1110111110001011
1111000100001110
1111000110001000
1111011111010100
1111100011011101
1111100011101101
1111111000111111
1111110001000101
1111100110000011
1111111010110000
111110101
1111010011101010
1111110100110100
1111110111100100
1010011
11110110111
10000101
1111111110011101
1111110011011010
1111100111000011
1111100011110011
1111101010111111
1111100100010111
1111110001101001
1111111001000001
1111011100111111
1111001000110011
1111000110100100
1110110001110101
1111000100001100
1111101111101011
1111110100100011
100100100
1111110110011010
100001011
1010001100
1111111100101000
10110010010
1111101111
1111111011000000
11111011
111100011
1111000000
1110101010
1010011101
1111110001111000
1111110011101001
11101001
1111100100011101
1111011101110011
1111101110100111
1111110101001111
1111101100100111
1111011010000000
1111010011101000
1111011111010010
1111100010010101
1111011100001000
1100100000
111010
1111111100011101
1111110110111101
100000001
1111111011101001
1001100011
1111110001100001
1111111101000000
1111011010111110
1111100000101110
1111101000010100
1111110010010011
1100100
1111001011100000
1111111011111101
1111110001110001
1111101111101111
1111100101110010
1111101100000100
1111100100001101
1111100101111001
1111110100011011
1111111101101000
100110110
10111000001
100100000011
11101100010
10110111101
100111100
1111110001110101
1111111101001010
1111111001110000
1111110111110011
100101010
1111101111010110
1111111011110111
1111000001100001
1111101010010110
1111101011110111
1111110000100111
110011
1111011000001111
1001100010
1111110101010011
1111101000010111
1111100111001000
1111011010110001
1111111001110110
1111111011011101
10010110011
11011101010
110001001001
101010110001
110110111110
100111111111
11111100010
11100100
1111111111011010
1111111111011000
1111111011010110
1111111100111100
1111111110001010
1111111111101001
1111101000
1111101011001111
1111110110011111
1111101111110101
1111101000001011
1111111110000100
1111111001101111
1111100011011011
1111110100111001
1111110010011000
1011100101
11000111
110011011
101001011
1100100000
100010010111
10111111001
1011110111
10011000001
1111010000
1111111110001101
10001100
11011101
1000011001
11000001011
1111111100110011
1111111100110001
1111111011001010
1111101110110110
1111001001000000
1111101010000100
110111
1110110111000110
1111101010111010
1111101011100001
1111000001111101
1111100110100001
1111101101010111
10010010001
11001001001
10001011100
10010000110
100010000111
101110011101
10000101011
1111111101101001
1111110110100110
1111110101110010
1111110101100101
10011000
1100100101
1111001110
10010010
1011111000
1111111100111101
10011110011
100011011
1111111000001000
1111100001011001
10110000101
1111001110001101
1111100001011101
1111101111000111
1111001110001110
1000110011
1100100010
10101101101
10011010011
10000101010
11110001000
100011000110
100000110000
1111111100011010
1111101001100111
1111101011101100
1111111000101100
1111111001101010
11101
1111111010010111
1001101000
10101010011
1111111010110100
1111111100001001
100110010010
100011001
1011010
100111010011
10011111111
1111100101101000
1111011010011110
1111111111001101
1111111100111110
10100111001
111000101
1110101011
111001110
110110110
101101000
11010011010
1110101111
110001
1111111101000000
1111111100011011
11001000011
111000101
101000100
1011011
1011010000
1111110110100110
10011000001
1111110100101100
101010111011
1111111010101001
1111110111011111
100011111010
1111111110111111
1111110000010001
11100101001
10101101010
100101111110
11011011100
10000010000
1010011110
1111111110101010
1111111111111010
1111111000110111
1000011010
1011001110
1100001010
10001000
10000111111
101011010010
100010110110
1111101111110001
10001100
1111111000111110
1111111100010000
1111111100110010
1111110010000001
10111111101
1111110000111000
11011110
100110001000
1111110100110110
1011011
1111111110110000
11000001110
1111111000010111
10101011001
1010101011
10010010100
1111101100111111
1000001
1111111001010011
10010100111
10001011111
11000100101
10000000111
11000000100
11001110000
10001000001
1010101
1111111110110010
1111111101100000
10000001000
10111001110
11110000010
1000001010101
11111000
1001111110001
100111110000
10100
1011011011
1111110110001101
1111100
1010100
1111101111
11101111100
1010000100
1111111000000001
1111111100110010
1010100000
100011111100
1101001110
100001100100
100010101100
10100100101
10101001110
1010011010
10111011101
1111111001000011
1111111111000101
11101010110
11011111011
110010000
1111110101110111
1111101011000100
1111101011101111
1001001101111
1111100000101110
1111111011001001
1111110010010100
1111111101101001
11011011011
1111111101101100
1111110011111100
1111110001011010
1111111001010101
10000000111
110010010
10000011101
10010100111
11011000000
100000100001
100001100001
101000111001
10111110000
10011010110
1111111110111001
1111111000111101
11101010001
100001001011
1001000111
10000110010
1111110110011111
1111101000111001
101011000010
10101000100
1111101111100000
1111111110011000
1111110010
1111111111100101
1111110101110010
1111110000111111
1111110000110110
1111111010010101
1101110000
1111111111100110
1010011011
1111110010000001
11010011011
11011001111
11010010111
101000001111
10010111111
1111111101110011
1111110101000100
1111110110000011
1111111111101001
1001000010
110100
10111111101
101101100110
1001011010110
11101000110
1111111100100101
1111011111111101
100101100
11001100100
10010010111
110100001
1000111010
11001101101
10100001001
11010010011
11111000
11101110
10100011
1000011101
10001100111
11100111
1111011100
110101100
0
1111110110101001
1111100010101000
1111101110000010
11110011
1111110101101110
11000101111
1001100011101
110110011001
1111111011100010
1100111011
110010000
1111101111100011
10011000000
1111101110100100
10110110001
1111110100010000
10100100010
100010010
1011111011
1010000011
1111111010100011
1111111011010100
1111110000010100
1111100110101100
1111110101000000
1111101100001011
1111101101010010
1111111010000100
1111111101000111
110000
1111100110111110
1111111001001001
1111111110100011
10101
110000111000
1001101001
1111111100110001
1111000111
10000110110
110010010
1111111100000011
1111110010111100
1111111010001100
1111110001111100
1111111001101110
11111000
1101100110
1111111001000011
1111011001100101
1111001010100001
1111001101001011
1111000100000010
1111110100000000
1111101110011111
1111110001101011
1111111101100001
100100110011
10100101
10101010011
11011011
10010000
1111011100111100
1111110001111011
101101000101
1111111001111101
101001101
111011
10000111000
11010001
1111111101001010
1111101111010000
1111101101100010
1111101100001101
1111111100110101
1001110001
1111110111010011
1111101000110101
1111011110000011
1111010001100110
1111100010010101
1111101101001111
1111010010010100
1111100010001101
1111110001111001
1000101
1111101011111000
111101010
1111110011101011
1111101000111011
1111100000101100
1111111100011001
1000010111010
1111111111100111
1111111011100001
1111111110010010
1111100010010110
11111100
1111111101000110
1111111111000111
1111100101100111
1111101001110110
1111111010110111
1100001
1111111011110011
1111011111000101
1111100110110010
1111111000100111
10101011111
10001
1111100100111000
10101000
1111111001110100
1111101010001101
100010011
1100111101
1111101
1111010001001100
1111011111001101
101100001111
100010111
10110011
1111111111110001
1111111111011010
1111110000111010
1111010011110010
101101011000
1111100001010001
10000101110
1111100110000000
1111110001011011
1111110100110011
1111110001101000
1111110010101010
1111100001011000
10001001
1111111101011001
1000111101
1111101000111101
1111101111101001
1111110101001101
1111011010010011
1111010101010011
1111010111001011
1111101001110011
10000000000
1111011100011011
1111111100110100
10001011101
10100011
100000001
101000011
1111111110001101
1111110000011011
1111111110111011
1111110100110111
1111010110011000
1111011001100101
1111011000001000
1111000100011010
1111101001011100
1111101101011011
1111110011101000
1111110100000010
1111011011000010
1110
1101111100
101000011
1111011110111100
1111100101110001
1110111001100101
1110100100011001
1110111111111110
1111001010110111
1111110001010000
1111101001011001
1011011
1010
1111111011001010
101000010
100010
1111111111110000
1101011010
1111111100010100
1111100111110111
1111010011010001
1111001011110011
1111010011011001
1111111111101110
1111101100001011
100010000
1111110000100110
1110011011110100
1110110110001000
1110110110001100
1110011101101100
1110110111100110
1111010000001001
1111011010110101
1111011000100110
1111111001010011
1111101100111101
1000101
100010110
1111111101110101
11001101
