1111111101001100
1111111111011101
101000011
1111111110011010
100111010
1111111111101000
1111111110000011
11010
1111111100010111
1111111110010001
100010001
1000001
1111111110111100
1111111111111000
11001
1000101
1111111010100110
1111111111110110
101000101
1111111111100000
1111111111000011
1111111011001010
1111111011101101
111010
1111111011000111
1111111101001000
10001111
11011010
10011101
11110
1111111010101111
111111
101011100
110100001
10110000
10111100100
11011100001
110001000010
110101101110
11101000010
100111000011
1010110111000
1100000001010
1010101011100
1000010110101
1011010101000
110100000101
10111000100
10100101
1000100001
1111110011101110
1111110110010110
111011
1111111111001001
110011
1111111101101011
11010100
1111111101011100
1111111101011000
1111111111010101
1111110100001100
101101111011
100001010100
110110110000
10100110101
10110011000
10101100010
111100110100
1010001001011
1010111000111
10000000001111
10000010110000
1011011101111
1100101110101
101101010110
110110100
100001101
1001101010110
11010011110
1111110001001111
1111101100100110
1111100011011011
11001111
1111111100001001
1111111111010000
1111111
101001000
1001101111
101001000
1111101100111111
1111101111001110
1111010001111110
1110111011000101
1111110100101011
1101001110
1111111000110101
1111110001100111
110010001
11010001100
1000001101
1010000010
1111011001
101000011111
1101111011
1111101011001001
10110101110
110011101010
110101110011
10000100
1011010110
1111100001001100
1111111100111100
11001
1111110010111100
1010111
1111010000100101
10011
1111110010011011
1111100111011100
1111101000001100
1111111001111101
1111111111001001
1111011101001111
1111001111011001
1111101010110000
1111111001110001
1111111011001101
1111101111001111
101000010
10010100101
1111111101111001
1110000111
100000010110
1111111011111011
1111111011101000
111110111
1111111000001000
1111110111001110
1111010101010110
10011111101
10111001
1111111010100101
11101000110
1000111001
11111001
1111010111110011
1111110000110000
1111100011010000
1111100000010011
1111101011110000
1111110011011011
1000111000
111011
100110
100100111
10000110111
10100110010
10011001010
1111101111110010
1111101000001100
1111110001111001
1111111101101001
1111101110000110
1111101011001011
1111111111101111
1000110
1111000001111110
1101100110
1100001
1111101111001111
1111101011111001
1111100101001001
1111100100011001
1111000010010010
111110001
1111100111
1111101000011110
1111101101000010
1111101111010001
1001011111
1111101101
10010101000
1001101110
1100110000
101010011
1110010100
1111111011111010
1111110111010010
10011010
1111101110111110
101110100
100100010
110000111
1111110110100101
1111110111111001
1111100010101011
100000111
1111001010001000
1111110111101010
1111101001101001
1111111101001001
1111101100101111
1111111011011100
111101011
1111110011001100
1111101110101000
100100011
1111111011110001
1111110110100011
1010101010
10110000010
11010010001
1111111110010010
1011011100
1111111000110100
11101010
1010101
1111111101011011
1111110110101011
11111111
10011010111
1111110100011110
1111101100010100
1111011001011111
11101000101
1111011000011010
10001100010
1111101111110101
1111111000111011
1111010100
1110000010
100100000
1111110100101110
1111111111010101
1111111100101001
1111110010001110
1111100101111100
1111111110011001
100111100
10111011101
101100000
10011011110
1111110011011101
1111101001010110
1111110110101010
11100010
1111111111000111
1111110000001101
1111111110001100
11000000
10010001001
1100111010
110011100
1111010111101111
1111100111010111
1111100000111111
1111110100010010
1011110011
101110101
1111110110001100
1111101110101000
1111100110100101
1111110010010111
1111011111001010
1111011101011111
1111001111100011
1111100111001111
1111111110011010
1110101100
1100010001
1111110010011111
1111011001000100
1111110111000011
1111110100001100
1111101000110110
1111110010101100
1111100001110101
1111000110110110
1111010110
1111100011111110
10000000
1111101101010111
1111100011101011
1111011111010101
1111110100101010
1111111011010000
110001011
1111110010110110
1111101000111010
1111011111011100
1111011111001111
1111001100110001
1111000011101011
1110110100100110
1111101011011100
11101001101
11000110001
1000110
1111111101111011
1111111011110101
1111111000100011
1111100110100011
1111100011111110
101000000
1111111101111011
1111010100100010
1111000010110101
1111001110111000
1111111010110110
10001111100
1001100010
1111011000000011
1111010101100101
1111111101011001
1111101001000100
1111111011000011
1111111110001011
1111100001010010
1111011001111001
1111011011001101
1111100111101111
1111110111011010
100100000000
110000000011
101000011011
10001010
1111111010101110
1110101011
1111111111001101
1111111101010111
1111011111111011
100101110
1111100101111011
1110111011111011
1111000110100110
1111100000010000
1111110111110111
100011100000
10010010111
10010010
1000000011
1111110111111111
1111101011011101
1111110111000000
1111110111000010
1111110100010000
1111101000111100
1111110010000110
10000110000
110011110000
110001000011
1000101101110
100110101001
1010010111
1111111110111111
11100111011
10101001000
11110111100
10000010101
1111111101110100
1111111111110101
1111001100001101
1111010001100100
1111101111101110
1010001000
11011010101
1110011101
1001001101
10001001110
1111100110010011
1111111111001110
1111111011110111
1000011111
1111110011110101
1111111111111100
1010101001
100111110100
111001001001
110000000000
1000101001000
101001110101
11101101111
11001110111
110000111100
100010110010
11010111110
100101000010
1111110110110100
1111111011110101
1111011111001111
1111100011101000
1111111100001100
1111111011110001
1111111100000001
1111101001001011
110111011100
11111011010
11001011
1100101100
1111110001101000
1111111011000000
1111101011011100
1111110111011001
10010110110
110101101010
111101101110
101101000110
10001110100
10110111101
110011001000
110100110000
100000001100
11100110110
1111110111110011
1111011110001110
1111000000110001
1110111101001100
1111110101110100
1111011011011110
1011100000
1111110011101100
1111100001011010
1111101110000000
100010010001
101011010
1010011
10100111
1111101010100101
1111011011110000
1111101010011000
1111101001000101
110110010
100011111001
101010110101
11100100100
100110
10110101010
10111001000
1010101001
1111111011010110
1111011010010001
1111011111111101
1111101001111110
1111011110010101
1110111110111000
1111110010000010
1101000
1111110101110001
100010100
1111010000110110
1111010010000011
10100010001
11110100100
1010001010
1100110000
1111101111011100
11001100
1111101011000111
10100111
11000111101
11101010101
11010001110
10110001111
1100011111
11000010111
1110100010
1010000
1111101001001101
1111100101100000
1111000111011000
1111100100010001
1111001101101110
1111010110000010
1111110110001111
1111011110110110
1111010011001110
10001010
1111011100101101
1100001001
1111111100000100
101011001011
101001111100
101011011111
10010100001
101100100110
11111010011
11011110001
11101010101
10011110000
100110111011
10101101101
1100111101
10110001110
10000100011
1111110010111111
1111011101100110
1111011111111001
1111011110111000
1111100011101100
1111100110010110
1111110111100111
1111111111010100
1111110111100010
1111011110100001
1111111101011011
1111100011100101
1111110000011111
111111110
11101101110
110110010101
11000000010
100111001001
110101100110
1000100101111
111010111110
11011000110
10100010101
100001001001
10000001011
11011101000
10100110100
1111110110011010
1111110011101101
1111101101000111
1111100110110010
1111011101000111
1111101010110111
1111010110000101
1110000100
11000110101
100000011
1111100100001100
10000111
1111010110011101
1111011110011001
1111111101101011
10100101011
100101110111
100100110001
11100101101
101110011000
101010011011
111000010010
100101111011
100001011011
10111100011
11000110101
11110110101
111011001
1111100101000110
1111111011000001
1111101100011111
100000110
1111101011100100
1110111100
1111110001001101
110010100
1111100111010111
1111101010100010
10101101000
11111011
1111110101100111
1111101001101011
1111111111110100
1111111100
10000101100
111011001
1111111110010010
11100010
1111111011101110
100000001101
101011000100
11111110001
1101110111
10000000100
11010101110
1101010111
1111111001000011
1000111
1111111001001011
1100
1111110111001100
1111110101110110
1111110010000001
1001101111
100000011111
1111011000010011
1111101001010111
11111111
1111001010010000
1111100100001100
1111001000011000
1111101111101100
10101110
1111110110010101
1111110100001000
1101111000
1111110000110110
10000011010
100110001
1111111110010000
1111111011010001
1111110110011111
1111111110100001
101101
100010000
1111110010100110
111110001
1001111100
1111000101
11001100110
1111100010110110
111000101
100000110110
1111011001000111
1111100110111101
1111111110111101
1111111000010001
10000111001
1111101010111000
1111110010010100
1111100001110000
1111011010110110
1111111011110110
100011
1111111100100011
1111111010100111
0
1111111011010100
10000011
1111110111100010
1111101110001100
1111111100110010
1111110011100000
1111111111011000
10101111
100101001
1001010001
11011100010
1111101111011111
1000000111110
11010010101
100001100
1111011110110000
11100011
1101110
1110010100011011
1111010100101101
1111100001010001
1111111111000110
1111100111111010
1111101100010110
1111111100011110
1111111010101010
1111110010011101
1111100000000101
1111110010100001
1111111101000100
1111111011100110
1111101000111101
10110001
1111111011101111
100110010
1010000001
10001001111
11101110101
111100100010
100111111010
1011010010
1111110011011101
1111100111101111
101010010
1111111101100011
1011001
11100001
1111101000101011
1111011100111101
0
1111111010010101
1111011111001000
1111100000100000
1111110110110100
1111110001000110
1111101101011000
1111110110000001
11110011
1111110110000100
1111111001100000
10100110
1111100000110111
1111100101010100
1100111000
100100111
1111110010101010
100001010111
111101010001
1111101111101110
10110110110
10000011101
1111111111110101
11001111
11001010
11111111111
100001001000
1111001110010111
1111011111101010
1111100011011000
1111011010010111
1111011001000010
1111000110111100
1111011111110110
1111011001111000
1111001100000110
1010000010
1001100111
1111101111011100
1111100000100111
1111111101001111
1111111010000100
1111101110010101
1111111101101100
10010111001
111101001
1111111100000101
1111010100111110
1111001000
1111111111011100
1100101
1111111111010100
10100100
1111111110001110
11101010000
10001110000
1111101101001010
1111111001010111
1111101110010011
1100001
1011101110
10001101101
1110010000
1000101011
1111111101000101
1010001111
1111101110101111
1111111100100101
101111100111
11001100100
1111101010010011
1111110101100101
100001000100
1111110110001101
10001101001
1000000010
1111110101100011
1111111110011100
1111111110100001
101010110
10001101
1111111101011110
1111111110110100
1111011110111101
1111010101111111
10011110100
1111111011001001
1111111010010001
101001
1111110100110100
10110111000
1111110110011011
1111010110001011
100010001000
101010100111
110011110010
100000001101
11001010011
10000100100
101110001101
10111011101
1111111000110100
1111111100010110
101011000
1111111111100100
1111111111010111
11001101
