10110110
100011111
100001
1111111010101000
100001101
1010011
1111111010101110
110000
1111111100000010
1111111100111000
101001000
11111000
1111111000000101
1101111100
10011011111
101110000
1111111110000011
1111111110101001
1110101
1111111010110110
1000110
111011
1111111110111001
1111011
1111111110000110
11000111
1111111011010101
11001010
1011101
1111111101111110
111
1111111010111110
1111111101100111
1111101111101011
1111000010110110
1110110111010101
1110101111100011
1110011001111101
1110110000010011
1110101000111001
1110100101010101
1110101111010101
101001111
1111100111
11110101000
1111100011000000
1111000000000001
1111000110010100
1111000101010110
1111000101011100
1111011110011100
1111100000101100
1111111111000000
1111111100100101
10110100
1111111111100101
1111111101100010
1111111100111010
1111111110011001
1111101001101011
1111100010010010
1111110100101100
1111010011111001
1110100100110101
110000011
101001010110
10101100001
1111111110010011
1111111111110111
100000011
1111110011100101
1111100100000011
1111110110010000
1111101010010011
1111000000111001
1110110001000010
1110110110110011
1110111000001010
1110101100010101
1111111001010100
10001000000
10110001001
10010010
1111111011100110
11101010
1111111101010110
11001101110
1111011110001111
1111100000010101
11101010111
11011001010
1111110110001110
1101111
1000011010
101100100
1000101011
10001110001
10111110
10010111100
11000100100
10101001000
10000101110
1111101110100001
1111101111111010
1111110110001000
1111011111010111
1111011011111111
1111001011101010
1111111100100100
1000001101
1111010100111001
100010010
11101000
11100000
1111111110010101
1111111011000100
10111010011
11000100000
101001000011
100011100111
11100000010
1111111011111010
10001100010
10000110011
10000010000
10101001110
1111101011
111100
1111111101011000
1111111001111001
1111110110011110
1111111001110101
1111011110100001
1111011000010010
1111110101111000
1111001001100110
1111101011100001
1111111001000011
1111110100001011
1111111010100000
1111111101010011
100100001
100000001101
10110111010
100011011011
10110011011
10010110111
11011100100
10110010101
1111111100001111
1011110
1111110011001111
10010100101
10000110011
111101001
1011100010
110011
111101
1111111110011110
10000011010
1111111000000101
1111101111001110
1111100110001101
1111101111010001
1111101011111100
1111111100111010
1111101101000100
1111011000010001
1111111011000111
1100111100
1111110000110101
110110001101
1111101100110000
10110100001
10001101100
1111111000001101
1111111101100111
1111111100100110
1000101110
1111111000101100
1111110110101110
101000
1111111001100101
101111101
11001101011
10101000110
111101101
10100000
1111111001011100
11011101100
10111001101
100010000
1111100001001100
1111101010101110
110011011
1101001110
1111111110100000
11101100010
1111111100000100
101111001110
1000111101
110100
10001111010
1111100111100010
110010000
1111110001100000
1111101010010000
1111101100000001
1111101101011101
100011
1111110110110000
1111111000011100
100000110
1100110110
1111110100100001
1111110001000000
10110001
111110001
1111100100
100111011
1111100101011001
1111010100100001
1110000010
1111110001010000
1111011011111010
10100000110
1111111011111010
11100001
111001010
1111100011101100
1111101000100111
1111100010111011
1111111001101000
100101110
1111111001110100
1111011111011101
1111100111001111
1111110111001001
1111101010111000
101111110
1001001001
1110001101
111110000
11001011
1111111110101100
1111111111110001
110110
1111111100100110
1111001010011110
1111110010001110
100001100
1111111000000001
10001100001
10111111011
1010110
101001000000
11101011000
1111100011010001
1111100101110100
1111110111010100
1111111010011010
1111110010100111
1111110100011010
1111011011100010
1111100001111101
1111111011110000
11001111010
110100100000
10010101010
1100101001
1010001111
11100110000
100001001110
101010
1011010111
1111111100000110
1111111001000101
1111101000011000
1111110000100001
100111011111
10101101110
11010000001
10000001010
11110110011
1111100110101011
1111110100011001
100000011
1111101101001011
1111100101000100
1111110010110001
1111111010000011
1111100011001000
1111010111000001
1111111101100000
101010011010
110001000111
100010111000
1111010110
1111000000
1110010000
100010000100
10011011001
1111110010100001
1011110100
1101010010
100001111011
1111110001010010
11100011100
1100001101
1111101000010100
11101001011
100010010101
1001111001
10011101100
1111111110011010
1111111000101111
1111110101011101
1111111110101101
1111110000001100
1111100011111100
1111100110011000
1111110101110001
11010100001
101010100101
11000111111
11101110011
1111001110
1000001101
111111111
1111110110001101
1111101101101101
10000010000
100111010000
10110011001
1111111001101110
100100010000
111011101
10110100
10110101001
1111111110011101
1111111111110001
1010000010
1111111000011001
1111110110011111
10010001
1111111011010001
1111100111111101
1111100111000101
1111100000111001
101001
101011101000
100110010011
11001111011
10101011011
10001111010
1111111111000001
1111110101100000
1111100101101000
1111100001111011
1111100001010101
11000100010
11110001010
1101000011
11101111111
1111110000111100
1111100011110001
1111101011111001
1111111111111100
11000101
1111011001010011
1111110111000001
1111111010011010
1111110001100100
1111100110110011
1111100011010000
1111110000100001
1111110110110110
100010010110
101111001100
100001100001
100110010101
100111010110
1011110000
1111110001000001
1111101111010011
1111100110000100
1111011011100011
1111011100001101
10011011011
101000110100
101001101000
100111111000
1111100111111000
1111111010111111
110
101010100
1111110000011001
1111000111110010
1111010110111000
1111111101111001
1111010010111100
1111101010011000
1111101001100000
10101110
10111100110
10100010110
10011011010
11110000011
100000001111
11100100110
1001111011
1111110101101000
1111101010000111
1111110111001101
1111101001000010
1111101011001110
101101100
1010010100
111000100011
100110111011
1111101100011111
10011101101
1111010011001111
10100111101
1111101100100101
1111010110011010
1111010100010101
1111010101111101
1111110010100101
1111110001001001
10100010100
11000010011
1110000111
1000011011
110100000
100010111010
1001001100
11001011111
101111011
1111100001110101
1111111111011110
1111111010011101
1111110010101101
1111110010011010
1111111011101101
100100011
100101000100
10010100011
10010111110
11001010001
1111110010001100
10010100000
1111111100001100
1111101000010001
1111010001100000
1111100011010010
1111110110101001
1111101001
10001010100
10111010110
10101100110
1111111001000000
10010110
100101011
10001000110
1000101
1111110100000001
1111100110111100
1111110110110101
1111111100101011
10011011100
10101110000
100100110110
10010000001
1010011101110
1011000011
1111111011010111
10011110011
1111111110110110
101111110
1001001111
1111110000110001
1111110000010011
101110100
10111010101
1100101010
11010
1111110100001001
1111101111010110
1111101001111100
1111110111001111
1101101010
101011101
1111110001000101
1111100000100110
1111011111011011
1111011011011001
1111110000100001
1111110010110001
1111100100011100
1111110100001110
100011010100
11100001010
101000
11111110011
11011110111
110000001
1111101111111111
11001101
1111101111011011
10001101111
10110
11101100100
1100100100
101010111
1111100011101101
1111001111110010
1111101100100010
11011
101101000
10001101011
1111110101011110
1111101110101100
1111101110011111
1111111000000100
10000
10001101111
1010110101
10010000001
1111111011111101
10001
10001000010
1111101110101100
1111110011110010
1110000
1111100100100011
10111011
10011011100
110100001
11111101010
11111101010
100100000111
10000111
1111100011000001
1111100010000110
1111110011100001
1111111111111111
1111111110011001
1100000011
10000
1111101110010001
1011010100
1000100000
1111000011
1001110011
1111110100111011
1111111110000000
10011000
110101101111
1111110111101001
1111111100011110
1111100000101111
10001
1111110010000111
1111111010000100
10010000100
100011110000
100111001110
10100110101
11100011110
101100001
1111100111110000
1111100111010000
1111110111111101
1111111110111011
1111100000100111
1111111001000100
1111101110111010
1111111011010101
11011001
1101010111
1011111011
101111000
1110010110
1010100111
11000111
100101001000
1111101100001000
1111101101111110
1110110101
101110100010
1111101110110110
1111110000110111
1000110011
10111001000
10010101010
10100101101
101000001
1111111011000011
1111110111010011
1111110001001010
1111100011100000
1111011110111000
1111100011010011
1111110010110110
1111101011111100
1111111000011111
1111111111011011
1111110110101010
1111101101110001
1111110100110100
110001101
1111110111100001
1010011
1111111110000110
1011110001
1111110000010000
1111110100101110
1110000110010
1100011000
1111110110010010
1111111011001110
11010111101
1111111101111111
1001100100
101101101
10010001
1011110110
1100
1111101110011010
1111110011101110
1111101011101010
1111101011001000
1111101010000011
1111110010000100
11101101
1100100001
1111110100111110
1001001010
1111101100111010
111000100
10010000010
1111100000000111
10101000100
100010001
1111111100010100
11001101
1111100111000101
101011110
100011110111
11001101101
11011001010
1111110010
10000100110
1000000011
1011010011
10111111
1111111000101000
1111111000101010
1111110011011010
1111101000000110
1111101100001111
10010110
1000100011
1000101001
1100001001
1111000010
1111110100100000
101001101010
11100010100
10000110010
101001101
10011010
11110010
100101010110
1010001001
1111101100101001
1011000011
10111000110
11011000011
10001110101
111110
1011101
1111100100011000
1111101101111001
11100110
111000011
1111111111110001
1111110011010110
1011110000
10011110001
10100001001
11111111111
10111001110
1111100110111011
110001010
1111111111110000
1010000111
11111100001
111
11001000
10010
1011000011
1111101000010000
11100101011
11000110100
1100111000
1101101000
10000000010
1001001000
1111110101100010
1111101000001001
10001010
1111111100001110
101011111
1111101110000101
1111110111110100
111010100
111000000
1111111101001010
10101110
11011111100
1111111110110111
1111011111110010
11100101
10001011011
110101100
1011101
1111111110010010
1111111111110111
1111111110101010
1110001001
10001011010
101101110110
100010111010
11001100100
111001000
11011110111
1000110010
1111101101101001
1111110001110001
1000101011
1000100101010
110110101010
10110111001
10100000010
1111001100
1011011111
10000000100
11011111100
1111000111
110100111101
10100101001
1111011100
1111111100001011
1111111100010001
10100100
110110
1111111101010000
100011000
1101101101
11010100110
1111001111
101000100010
110101010011
101001000110
100111100001
11100001110
100110000000
110011000000
1011001001100
1001110111011
111100001011
1010110101001
111000011101
11101011101
1111011000000001
1111101111111100
1101011000
11010011010
1111111101100101
1111111101111001
1111111110101110
101011
