10010011
1011000
1111111010110011
1111111111100011
1111111110110010
1111111010101000
1111111110010110
1111111101100000
1111111011001000
1111111101001110
1111111010111010
11000010
111110101
1001000010
1001010111
110111111
11111011
11101100
1111111110010100
1111111101100110
101011011
10010010
100100011
11100010
1111111100100101
1111111111001010
100000
100
1111111110001011
10000010
1111111011110011
1111111110001000
1111110001001011
1111111111010010
10111100110
1000101100
1111110011011010
1110101100
11111010011
100100001011
11001101000
11001010011
1111101100101100
101001110000
101111101010
10111111111
1110111011111110
1110111001001000
1111000110010010
1111100001100000
11000011111
10010110100
1001000
1111111101001001
1111111110010001
1111111110111000
100011001
1111111111010001
1111110110010101
10010111010
10100110010
1111010001100001
1111101010100111
1111110101010000
1111101100111101
1111111100101001
10000100010
10101110110
1111111000100001
1111110100101000
1111001000101011
1110110011101110
1111000100001110
1111100001000111
1111111000001011
1111101001100100
1111101101101010
1110101010110010
1111110101011110
1111110111111110
1111001001110100
1001010
1111111011011000
1111111111001011
1111111110000000
1111111100101010
1111110110100110
10101001001
101110010
1111100111001010
1111111110011011
1001110000
1110111111
1001011100
1100000011
1111111110011001
1111101011110001
11000100
1111011010100001
1111111011011111
1111001100101101
1110111010111100
1111010000000011
1110101101010110
1111011011001001
1111100010100000
1111011011001101
1111101011101000
10001011100
1111111110001010
11001101110
1111111101101100
1111111101101111
1111111110000111
1111110101100001
100000101101
1111001010101000
1111000000101011
1110111011100101
1111000001101000
1111100100100001
1111100011110010
1111110111000111
101000010110
100001001010
101000000011
100101010010
101101110100
101101000
1111101111111111
1010
110100110
10011100000
11000110100
110010001
1111111100110001
1111001100
11001101000
1010010100
110000001
1111111011101111
1111111111000010
1111010000100100
100100001
1111110010011011
1111101000101010
1010000110
1111101000110001
1111011001011101
1111111101011101
100000110001
101111110101
100000010100
110110111001
111000001010
101111001100
101101101110
100010010000
100110111111
100110010001
111111011011
1001011110111
101011110011
1111110000010011
10111010
1111111010111011
1001101011
1111101000011110
1
1111111101010110
10000011000
11110110000
1011000100
100110010
1010010100
10111100111
10111010110
11100111001
10011111001
1111110110
1001001110
11111101
110100001
100001011
1111110111111010
1111100011010101
10010100101
100010001000
11000110010
11000101011
100010101101
1110001010
11101010
11011110000
1111111011110101
100000100111
11111001
11001010011
111110111000
110100110011
10000110111
111000111101
111011011001
10101011000
1010001010
111000111
1111111111111110
111010100
1000000101
1111110000000001
1111110110010001
100011101
1111111111010100
1111100001010110
1110000001
1111111011111000
1111110111110101
101000000000
10010011010
1011011
1111111111101110
101011100
1111110110000010
101101001001
10001010
11101101010
101011001010
1001001000000
110000001
10010001001
11011001000
101110000
10010001101
1111111111001101
11001001
1111100011
11000110110
10101011010
1101111001
10000100
10100110101
11001110
100000101
10100010110
10101100001
100111101
1010000001
110000100
1111111011010011
1111110100010111
0
1001111001
1010011111
100000111000
10000000110
1111110111100010
100111010
100110010001
11000100001
1111101111110101
100000010
10111011100
1010100
11010111110
100001100000
11100111000
1000011111
100000001
1011100101
10010010001
110000110
10110111111
10101111
10101000111
10000111101
1111111000110001
1111110011001000
100000100010
10001011001
1111101100110000
10000001111
100001011110
11100111100
1111111100010101
1000111010
1111110110010111
1111111101010101
1111110000000000
1101110010
10000111111
1010101001
10111010011
1111111110011010
10101001110
10110011011
10000011100
110011111
111000101
10000111101
110000111
10101011110
100011001101
1010010110
1111111100100101
1100000100
1111101101010101
11000010011
11001010110
10101001
1010000000
1110011110
11001011000
1100000010
1111010100011011
1010101001
1111110011011011
1111100110110101
1111111111100010
1111101110000111
1111100110001100
1111000000101110
1111110001100110
1111110110000101
1111101001011100
1111001100011011
1111010100100010
1111101011101001
1111110110011000
1111110111001001
1111111010100101
110110011
1000100000
1111011001
1111111010101100
11111110001
101101110110
11101111001
10100111110
1111101011000101
1111101001100010
1111001010100011
1111011010110100
1111110011010011
101111111
1111100011101101
1111101001000001
1111010110111010
1111001100100101
1110111111111110
1111010001111011
1111101010001111
1111000100111001
1110111110101010
1111001111111110
1111010010000000
1111011011010001
1111011111111010
1111110001100001
1111101010111111
1111100010111100
11001011101
101110011100
11110001000
101110000010
10100011110
11111010
1111110011110100
1111110000010001
1111000001110110
1111110001100011
1111100000010010
1111011100111100
1111111011000111
1111110111010001
1111011110100101
1111011101011010
1111101011011100
1111100000101010
1111101000110110
1111001010001100
1111010111000001
1111101110010110
1111100011000110
1111101010100110
1111001100100010
1111011101111000
1111101100111111
10010000010
101100011011
11100011011
1111110110111111
10010010111
100010010110
1111110100000110
100001011100
1111011110111001
1111011011110110
1111101011101100
1111100001111101
1111110100011111
1111111010000000
1111011111110011
1111100111101000
1111110011101000
1111111001010100
101000
1111110000011110
1111100001011110
1111011111000000
1111101100110110
1111101001011001
1111111100110110
1111011111110011
10000001111
1111101100111111
1001000111
1011000000
1111011011000101
100010010011
10011001111
10001011101
1111101101011011
11010011011
1111110110000101
1111110110110110
10111101100
1111110110101101
10000011011
1111111101001011
1111101101001101
1111100001111100
1111100101011000
1001110000
1011011100
1111111001111001
1111100111010111
1111101000100000
1111110010001110
1111111011110011
1100000
1011100100
1111110010010011
1111100000101010
1111110000100101
11010000010
1111101111101000
1111110011110110
1111100100100001
1111101010010001
1111111111011010
1111110100000110
1111111001011010
11010011000
10001000010
1100001001
1111101111011000
1111110000001110
1111111110101010
1111110001011100
1111110001001000
1001100010
100010011
1111110100101111
1111100001100011
1111110111101101
1101100
1111101111010101
1111111010101101
1111100110111110
1111111100011101
1111110101011001
1111110011001101
1111101100
100001101010
100010111010
1111110101110101
1111111011001110
10100001111
1111001101101111
1111110000100111
1111110100111101
101110011110
10011100101
1111110110010011
1111110111101111
1111111010100010
1111110000111010
1111110110001001
10101110101
100101000
1001100000
100010100
10110110100
111001111
1111110010001010
1111111000110101
1111101111011100
1111100100111001
1111111111100110
1011000
101111100001
11000001000
110011011
1001100100
11111000101
10010000110
1111001100111011
1111110100100011
1111101111111111
11000111010
10011011011
100111100
100011101000
11010111011
11000100110
10110010100
11010001101
11100011001
10111111100
100110100011
10101100111
110101110
10001110100
1111110001000001
10000011111
101100010
11010011011
111101111000
111000111100
110011100100
1111110010110010
1111111010010011
1010111101
110100000101
1001001000
1111101100101010
1111101001000110
111010100
1110101100
1111111000000010
11111111100
111110010111
110100011011
10011010101
101011001001
11101101100
11011010011
1100100110
1111111011001000
1101101
1110010100
10011010100
100010110010
110111011000
1000101000100
10000000011001
1011011000001
111011001000
11010011001
10001000111
110101
100011001011
1000111000
1111111110011010
10011111011
1111110110
1010100011
1011011010
101101000011
10011111111
100101101010
100100011011
111000100100
101000010000
10001001000
111000110
1111110101011110
101100101
1110101000
111001110011
1000011100000
110100101100
100001010000
1011110010101
11111010100
11111001110
11100011010
11000101101
100101110
1011110010
101011000001
10011000110
100110110
1111111010110101
101101111011
101010100101
1111110000100010
111001101
1011001101
101001001111
110101010110
101100101000
11110010001
10111111111
1000011001
10010001011
11010010001
111011001001
101010100101
10011011001
100001000111
110110110
10101010011
10101011011
11010001000
1111111111010110
100001010
10010000
110110100
10111011
100011100
110110101101
11011011100
1100101110
1111111110110000
1111111101010000
111000110
11111110101
101001011000
110001100001
11111010110
11110110101
101011111
11111011111
11110011110
111000101
1000100011
1110111101
1111101101001110
1001101110
1100110100
101010110001
1111111011111111
1111111101011000
1111111101000101
1111111101110010
101111000
101110110101
10010100100
100000111100
1111111000111110
1111111011111000
1111110010111110
1111101010001100
100111
100001110011
10100001000
11001010111
11100111100
11110010000
11100010011
11001010001
1100111110
1111111011010000
1111101100011101
1010111111
1111101110000010
10000010010
11000101100
10110101100
1111101100001111
1111111011101000
11111011
1110010
1111110010000110
110000101010
1111100111000100
1111101011000111
1111100111000001
1111100011110011
1111100001101111
1111100000000100
1111011000000010
1111111010000001
1111101111100111
1111111000100101
1111111110101001
1000110110
11101001110
10001110
1111101100100100
110111
1111101101011101
1111101110101010
1111101110110010
1111010001011101
1000101
1111011001110010
1111101111100110
100001010
100011011
100011000
1111100000001110
11010111101
1111100011110111
1010000100
1111110010000101
1111100101111011
1111011010111100
1111111000010011
1111100110100001
1111110010110001
1111101100010100
1111101010110101
1111100100000011
110100
110111001
1111110110001101
1111100100111100
1111111111011010
1111110101010000
1110100110101011
1110110000111101
1111111000010100
10011100001
1111100100001100
1111111001000001
100010111
11101011
1111111110110110
1111111111110010
1111101100000001
1111010110011110
1111110100110101
1111100111011101
1111111110011010
11001011110
1111110111100111
10011110100
10101110010
1111111011111001
100011010
1111100100110111
1111101110001000
1111110101100010
1111001110000010
1111110011101000
1111111111100111
1111111100101011
1110101011110100
1111100010101010
1111111010111110
1111110100110110
1010111100
11100111
1111111101000110
101
101000110
1111111110101010
1111111100111010
100000001001
101000101011
1111110101010111
1111111011100011
111001
1111111010100010
101000101010
1111110011010011
1111101011011001
100101100001
1111111011110010
1111011111101100
1111101000100000
10111011
1111111001111110
1111100011000100
1111010111101101
1111001111001110
1111011110101010
1001110101
1111111111111101
10001010
1111111101000010
1111111110111011
