1101001
10100
1111111111001110
1001111
1111111101001100
1111111011011011
1000101
1111111011000111
1001110
1001110
1111111010101000
1111111110111100
1111111011011110
1110010
1111111010010100
1111111101101110
100010111
1111111110001101
11010110
1111111111111101
111110
1111111100100010
11010100
11101101
100011111
100101
1111111101011001
1111111010101110
1111111100101110
1111111101010010
1010001
1111111010101111
110001010
11110101
1111111001111001
1111110000110000
1111101001010011
1010001010
11011101001
11011111100
100000000110
100000101111
1111100100101000
1111100100111101
1111110111000110
111001011110
1111110001
11110101101
100111000010
11000100010
1111111010010100
1111110110101001
11
1111111101001001
1111111101000111
1111111101110111
1111111100001001
1111111101011101
1011010
11000011001
110001000101
101001110110
1011000111
100101100101
101001000000
10101110110
1111111001110101
1111010100101001
1111100111110100
1111101101011100
1111111101
1010110111
1111110011001001
11100001110
100010101
1111111000000110
1111100111010000
1001101110111
101110011110
1011111001
10101111101
1111101100111111
1111111100101100
11101100
110011
100000
1111101100010111
1111110010110110
1111011111000100
1111111000000001
1000111101
1111001100111100
1111101101000010
1111100010100100
1111110101111111
1111111111010110
1111110000110110
1111101001111111
1111111111011010
1101001
1101010000
11000110
1111111110100011
1100111010
1111110011000011
1111011011
100110010100
10110011000
1111011111111111
1111110111001011
1111100110001011
11111011
1111111100100101
1111101001011001
1111100110000110
1111011010111101
1100000100
1111101101111001
10011110101
1111010111010100
1111011110001010
1111110000101000
1111100101110010
1111110001010000
111010010
10011001
1110001110
10110111
10011000100
11101101100
10100101011
1111111001110100
110101011
1111111001110111
100100101
1110110011
1101001001
1111111101100001
1111001010010111
100011100101
1111111010101000
100100000
10111011101
1111111001111100
1111101011000010
1111100110011000
1111101001000101
1111111000101000
1111111001000011
1111111100011011
1110001000
111100100
1111111001110010
1111101010111010
1111101100101011
1111110100111010
1111110011010110
110011100
1110110110
11110
1111100010010110
1111101110101000
1111111101001111
1010110
1000001111
1010100
1111001011010111
11000111010
1010101
1111111101000101
101110110
1000000
1111011101010011
1111100110001111
101011111
1101111000
1111111011001101
1111111001111010
10000011100
1111110111101101
1111110111111001
1111111110000100
110010111
1111111010110011
1111110011010001
111100010
10010101001
1111111101110000
1111110010101100
1111011111001110
1011001011
1110011000
1111111100000010
1111101111100011
1111010001011001
1111111001110111
1111111001011100
1111101010001100
1111110010000000
1111111000110100
1111111100111101
1111111000111100
1010100111
11110100
1000100100
110000
1111111001100010
111000111
1100100011
100100001101
101001100
1110011100
1111110100010111
1000000100
1100101101
10110010011
1111110110110011
1111111010010011
11111001
1111110011101100
1011000011
1111000110110110
1111100100011111
1111101001010100
10110110100
10100000
1110011101
1111110000111001
1011111100
101101
1111110001000101
100110011
11111001110
11001011000
1111111100110011
10100010000
101001110
1001110011
10001001011
11011110110
100111110000
101010011011
1011011111
11010101110
100001
1111101010000000
1111101011110010
1111111101110100
1101010
1111100010011101
1000111001
1110000001
1111111010110011
1111110111000101
11111101010
1111100101000110
1111111111110010
11011110101
1111110001011111
1111111001001001
10001111110
1110001001
1001111001
1001101100
11110101
1111100111011111
110000111
100001010011
110001011101
110010111110
111101100001
101101100100
10111011010
1111101110111110
1111100100010001
1111101111101011
1111100001101111
1111010110100010
1111100111110111
1111111111111111
1111111110010110
1011010
1111111010100110
1111101000011010
1111110101110010
111010001
101111000
1111110101000000
1010110100
1010111110
1110101100
1111111110000011
1111101111001110
1111011010100101
1101000
100111101111
110010010011
100010001000
110100011111
110010010000
100110001011
10001011101
1111101001010110
11011001011
10010100111
1111101110001111
1111011101010000
1111100101101110
1111111100011010
1111000001
1111111111100011
1111100011111101
1110111101010101
111
1111111101101000
1111111110110100
10110100
1111001011
1000000011
1111110100101111
1111101010001000
1111011001010000
1111100101101101
100110
11100001010
100001000
1101110110
111011011
1101111001
100001110111
110010111100
1001100101100
1001100001010
110010000
1111111101111011
1111100101100001
1111100010101000
1111101010010111
1111101111100100
1111101001000000
1111001011000111
1111101101111110
1001110
1111101000010000
1111100110010100
1111101110100001
101100001
1111111011010011
1111100111001001
1111101010111011
1111100110101000
1111111010111111
1011101101
11010101011
1111111011101111
1111111001110101
1111
10001110011
111011001111
1010000011100
1100110110100
100001101000
1111100110000101
1111110110001101
1111110010000101
1111101111100000
1111101000100011
1111011110011111
1111000100101101
1111100001100001
1111110000010011
1111101001010011
1111110111111010
110101
10001000111
111111111
1111111010101010
1111111000001111
1111101000110011
110110111
1110111111
1101000101
111010001
1111110110100010
1111110101000000
1111111010000011
100001001110
100101100011
1100100110001
110000111000
110111100
100010011101
1111100011100101
1111110010110000
1111000110110100
1111100101001000
1111010000100111
11001101010
1111111100111010
1111010000
101000100
11010010101
11100101011
100000101010
11001000000
100001100
1111010110011011
1111111001000011
1111000011
11110110001
10000001011
1111111011001111
101100010
1111111001001100
1111111100011011
1111010110000000
1000000101001
11000010110
1001101111
100001110000
1111101110111000
1111101010010111
1111011000011110
1111110110000010
1111011111001001
111100111000
110001101110
1010100100110
1001111100101
1000000011111
101101000000
10110110111
1111111100110110
1111110111011111
1111101111010010
1111111010001100
11000110
100110010
10011001
1111110011101111
1111100110111100
1111101011000110
1111111001110000
1111111000011101
101001011000
100001011001
1111101111011001
1111101001000100
10110011001
1111101100011000
1111110101101110
1110111101101000
1111111010010110
10110010100
111011000010
1011110111110
10001011110000
10010011000001
10000011110111
10000011010110
1001000110010
11001110100
1000101
1111001111
1001101000
1111111000010000
1111110100110101
1111110010011101
1111101111010011
1111100111011100
1111111100011111
1111110111110000
1111101001
100001001000
101110111011
1111101100010110
1111111110110010
1111011010011001
1111111000111110
1110111111100001
1111110000010111
10110011011
10111000100
11111001001
1000111110010
1011110110100
1110110010100
10011001010001
10000111010111
1100111000110
11111111110
10110011000
10111111000
111000001
111000101
1111011011110100
1111111100010000
1111110101011011
1111101011011000
1111111010111100
1111110011111011
101001000
100111110011
10011110000
1111111001111010
1111110110011010
1111001110001010
1111010011000101
1111100010111001
1111101010111000
1111101110011100
1111011110100111
1111011100010101
1111100110100110
100011101
110001010001
1001101110001
110010001101
111010110
1101111100
11100001001
101010100
11000101
1111111010110011
1111110100111111
1111100100001101
1111100111110001
1111101000000010
1110111101
1111110111110001
11011001111
10101100001
1111110010110100
1111011010001010
1111101100000110
1110111111101000
1111101010001010
1111101000100011
1111001001011101
1111011010011000
1110111011111010
1111001011001100
1111001001111010
1111101110010101
1000100100
1101101100
1001001100
101100010
10010111
100110010
1111010010
1111111001111110
1111110101001101
111001
10000101110
1111110100011101
1111111110011100
1111010110000010
111100011111
10100111001
1111111010101001
10001101001
1010100110
1111011010111011
1111100110010100
1111011001011111
1111011110110110
1111010001100010
1111000100101101
1111001101111001
1111001111011001
1111001110111010
1111110111010111
1111110011111000
1111111011010011
1111110100011101
1111110111101110
1111110000001111
1111110000101001
1111101001011001
1111110010101110
101101
1111100100010001
10111000110
111100011
10011111011
101100110100
1111100111100010
1111111000011101
1111110
1010101111
1111111000001010
1111011110100010
1111111110110110
1111110100000110
1111010000111010
1111110100100010
1111100110011011
1111100100101110
1111100101100011
1111110010110100
1111110010100111
1111101000101000
1111100001100001
0
1111111111100100
1111101111000111
1111111101101100
1111111001111110
1111111010001001
1111111101110110
10001100010
1011100
1111111011110110
100010111010
1111111100110010
1111111011101100
1000101100
10111100101
11111010
1111111100000011
1111000100
10000110010
1111111011111001
1111111000110110
111010101
10001000001
1111111110001110
1011110101
1111111110111011
1111110111111101
1111100111100110
1111111011001001
10101011
1111110110110100
1111101010011100
1111101011001001
1111101111001111
11011101100
1111010010101001
101110100001
10110011
1111110110111000
1111111101110111
100100100
100100011
1111001110110100
1111010101010111
1011010101
110001111000
11000000101
1000011011
1100100010
1000101000
1110001101
110101010
1011000110
1111111111111000
1111110111100101
1111101101011111
111100011
1111111011001011
1111110110110101
110110
1111100111010110
111011111
111011100011
10101000100
1000010010101
100001111111
1111001111111000
1111111011011111
1111111011000111
1100100
1100001001
1111010011100100
1111111111011010
100111000010
100011100001
10110001
110101010
100001100
11110010101
1111111001
10000001100
10000101110
101101100
1101110
10001000100
100011100
111110000
100011000000
1111111110010010
10110111000
11001111101
101000101101
100111000101
101101010100
1111111100010101
10100111
1111111101011111
1111111101000110
1111101101001000
1111101001111001
1111111101011010
1111001101
1011000001
100101000110
111011111001
11101110011
100110011100
10101011101
1111100101010000
1111110110111110
10000110101
1100101010
1111111011011010
1000101110011
100000111011
10010001101
111011100
10010000000
10100101010
100000010100
101010001
1110000
1111111011100101
1000001
10111
1001001
11100011
1100010011
101000000000
1111101010100100
1111111000101100
1011111011
1100111001
10111101111
1111101011001101
1111101010110010
1111100101001100
1111101111111000
1000101110
1111110101
110000110
100001001011
111101011000
1111111000001100
1110111100101000
1111000101101100
1111000100000010
1111011011000010
1111111100000010
1111111111010001
1111111010110000
1111111011110111
1011111
101001011
1111111011101111
10110001
1001000
1111111010110010
1111111010011000
1111101011101001
1111011100100110
1111011100101001
1111011100111111
1111111011101001
1111100010010010
1111001101000000
1111101000001011
101111110100
100101110101
1111111000000011
110010
1111110011101110
1111011010101101
1111100111101110
1111100010010001
1111111011000011
1010011
1111111110100100
1101100
1011011
