100111100
10001111
1111111110101010
10000010
1111111110110001
1111111100000111
1111111011111100
10010110
1111111110001000
1111111101111110
11101011
100101010
1111111110010011
1111111001010000
100010111
1111111100010011
1111111110111010
1111111110001111
10111000
1111111111000011
10011110
10010
1111111010111000
1111111111010001
11100111
1111111111111101
1010001
10011111
1111111111111011
10101101
1111111100100100
1111111011101111
1111111010010010
1111110100110111
1111101101000010
1111100001000110
1111100110110110
1111100000111101
1111011000101010
1111001110110000
1111001100011000
1111000110100010
101000001101
101010010100
10101111010
1111110100110110
1110111001001101
1110110010111001
1110111000110001
1111001010001101
1111011111101101
1111110110001010
1111111011011011
1110000
1100100
1111111110010010
11010000
10001111
1111111001010010
1111100110011011
1111100011011100
1111010010111011
1111000111001001
1110110000000000
1111010011010001
1111011011100011
1111101110001010
1111101001100001
1110101100110010
1111001001111101
1111111101010011
110100111
1111111010001010
1111110100001111
101101100
1111110011010100
1011101101
1111101100101111
11001000
110101
1111000001100111
1111110000110011
1111111101111101
1111111100110010
11000110
10010011
10001101010
1000111000
10110100100
11001011010
1111101110
110001000010
11110110000
100011011
1111100100111111
1111101101011000
1111101111101110
1111101010101100
1111111110011110
1000111110
1101001
1011100101
11000010100
10010010011
101010111010
10011100001
1111111111110100
11111110
10110110111
10011000101
1100011
1111111111000111
1111111011010110
1011111011
10111010100
101011001001
1111110100010110
10010111000
11101101
100111010110
10000111110
1111111000010000
11100101
1111110000
1111110011101100
1111111010000110
1111111100100101
1001000111
1111110101111010
1111110001011100
1111111011100110
1111101111110000
1111101010011111
1111111100011011
1111111110000010
100101001
10111010
1111111001100101
10000110010
1111101110100000
1111111110001001
111011
1111110100010100
1111110010000110
1111100011110110
1111111101000111
1110100
10110100001
1001010011
11110101100
1101110111
11100001010
1111111111011000
1111110111010000
10
1000001111
10011011000
1111110100011000
1111100010101010
1111100010001110
1111101010000111
1111110010001110
11100110101
11100110
1111101110101001
1101111
10111010
1111110000001010
1111111011000110
10101010
11000000011
1111011110100101
1111100010001111
100010111111
1111101111010111
10110101101
101001011100
100100110110
10101111001
10011111100
10001100001
10100100000
10100000111
10010001010
101001101011
1011010101
1111111010111111
1111101111111001
1111101000101111
101001
1111111011011010
110011111
11000101100
1110111001
101110010001
1111110111100011
1111111110111000
100110011101
101001110100
1111111010111100
1010110000
100110101
1111101000001010
1110110110
10010100010
11010101101
11101000
11000111
111111000
1111111111011001
1011000111
11111010011
101000101100
1001110001
111110011
111111000
1100001
1111110010111101
1111101110001101
1010100010
10101110011
101111010110
1001100100
1111110011101100
1111100010001111
1111111100010011
1111101000101110
1111101101000100
1111101011
111110001
1111110101101000
1111110010100111
111001011
1100
1111110011110000
1111111001110011
1111110111100101
1111110010100001
1111000
10010101101
100110110
1111111111100101
100100110001
1000100100
1111111101110000
1111111010111111
1111111001110110
1001000010
1111011111
110001111111
1001010101
100010101011
1101011011
101101010011
1111111001000000
10010100010
0
1111110011101101
1100111100
1101001010
100001000000
101010001
10101000
1001111010
1111111010100001
1111110001000101
1111101101010111
1111111010010000
1111111001000001
1111110110011000
1111111111110100
111100100
1111111010011011
111010010
10111100100
11000001011
1100101
1000000111111
100001010101
100111001010
1110100000
10100101111
1000101111
1111011111000100
1111111000111111
1111100000111011
1101111010
100100010001
100000011001
1111011010
10100010100
10111110101
1111001101
1011000100
10100011
1111111110111001
1111110111100001
11110
1111110101110011
101101010
1111111001100001
1001101101
111001
1111110101111000
1111100011111100
1100100001
10001010001
101110011001
1110100101
1111111011101000
1111111001100111
1000010100
1100001001
1111100110101101
1111111100110111
10011110001
11010010111
100100100101
11010011110
110001110011
100101010100
110110111100
11010101001
10101100100
1110001101
100111011010
1001001000
1111110100011010
1111101101100010
1111101111001010
1111110111000001
1111111110100001
1111101101110110
1111111100001001
111111000111
101001011111
1111101011
1100110101
100000011
1111111001000011
1111110111101101
1111101101011010
1111111110111001
1011100
1111110100011111
1111110111010010
10001000100
100001001100
1000100111010
110011000100
100110100000
101100000100
111010100010
11000100110
10101011100
1100111001
1111111111001010
1111111010100101
1111111000011100
111011101
1111001100001010
1010111101
100000000011
11101100000
1111110101110001
1111101010100001
1101100100
1110001011
1111100010010100
1111111111000010
1001110
1111101101010000
1111101110010000
1111101111101000
1111111000001110
101011010001
1000010000111
111011001111
101000110011
101010101101
101101111110
11111110101
11001100111
11110011
1111111110100010
1111101111110100
1111100100101111
1111100010100101
1111101010101110
10010001111
1111101110100011
1111101011101011
1111110000110100
10001000110
110011010111
1111110010010111
1111100110000110
1111100111100010
1111101110001001
1111001100111100
1111010010110110
1111010101101101
1111100101101001
101011010
10111001001
11011111000
110011110010
101001001000
11111110000
100010111100
11001100
101101
1111101011101101
10011101
1111111110001011
1110111
1111111000111100
1111110011000110
1111110000100010
1111100001110110
1111110111001101
11101000010
101100110100
1111101101010110
1111100110010000
1111010100011010
1111100101110110
1111011001101111
1111000110010100
1110110010011111
1111001010110100
1111100100011001
100101
10100011
10001101010
1010100110
1111111110011101
1101010
1111100011
1111111011111110
1111111110101110
110001
10011000011
1000110011
1010001001
1111101011101011
1111011001010110
1111101011110011
1101010111
100110100110
100101010011
1111100111001111
1111101101001000
1111100010101100
1111111000001000
1111101011100000
1111010000110111
1111010101010101
1111010101101000
1111001111001101
1111101001101111
1111110101001011
1111101111010111
1111011011011111
1111100000011101
1111101100010011
101111
1111110110011011
1111101110111011
0
1111111100000010
1111111110001110
1000011110
1111011010101101
1111000111101100
110111111
1111111110010001
100000001110
10101000010
1111011111110010
1111111001010101
10000000111
1111111010100010
1111110110111001
1111111011101011
1111101101111000
1111100111010010
1111011001001000
1111100110011101
1111110010011001
1111110100111110
1111101001001001
1111100100100101
1111111100100011
1111110011110011
10000
1111100001111111
1111100001111000
1111110100010010
1010000
1111110110001111
1111101110111001
1111111101100111
1000101100
11011001100
1111000001
101010111110
11110111
10000001
11001100010
10000010101
1111111101111110
1111111101101101
1111110010011000
1111100001101001
1111100011100001
1111000111110100
1111011110111100
1111101110010010
1111101101001110
1111101101101011
1111111000111101
1111110100001000
1111101101101001
1111011001111011
1111101101110010
1111010101011101
1111110101010110
1111101000000000
1111111010100001
10011111010
1111110001110100
1111111101110111
10010100111
1000001101
1101100011
1011010100
100001101000
10010010010
1011000
1111110111101011
1111101101101001
1111100110100000
1111010000111010
1111100000110001
1111101001011000
1111111001001111
1111110101100011
1111111000011110
1111110100011111
1111110000010001
1111011110111110
1111000000101110
1111001111011001
1111011000110100
1111111000001110
1111101111110011
11011010010
1111100110011000
1111110011110111
1111111100100100
1111101100111010
1111101010100101
1111110100100000
10100111100
10111110
1111111101001010
11000100100
1111111110101100
1111111000111001
1111101000111101
1111101011010101
1111101101010000
1110111
10000001100
1010
1101000101
110000110
1111110001011100
1111100010101001
1111100110011011
1111100001110100
10110010
1111111001110110
1111101101111011
1111111111001001
1010001011
101001010
1111111000010000
1111111010111000
1001111001
11100101
10100011100
101100011
1111110110110110
10111111
1111111010100010
11111110
1111110111110111
1111101101110110
1111101010110111
1111111011110110
10010100000
1010011111
1101100001
101010110
1010100011
1111111110101111
100110010
1010110
11011000
1111101010110101
1100100111
1111111111000101
1000010011
1101011011
1111111011011001
1111111100100101
1111101000001101
10110101111
1101010011
1111111110010000
1111110100100001
1111111011001011
1111111110100111
10110101
1111101011100101
1111101001000101
1111100111001010
11000111
10010110001
1100010010
1111111111000010
11111100
10001101001
100010010010
100000110001
10100011
110001010
1001111111
1111110001101111
10111111001
1111111011111011
10101110011
11000101
110100
1111110010001110
1101111110
1000110001
1111010100011001
1111110001111010
1000001110
1111111101000010
10101011100
10100000100
10101000010
10101001010
11010001000
10111101000
11101011
1111110001110001
1111111101110100
1110110011
11100101100
1100010110
11010101101
111101
11010111
1001100011
1111101111100101
10111000101
1111111111100100
1111111110100001
1111101
10111111011
111011010001
1101100110
11011010101
1111100010
11010100011
100000100101
11100010001
110110011100
110100111111
101100000000
111001000111
100010010000
1100111111
100111111100
11110010101
101100000110
101101101100
1111101101
11110001010
11100100100
1111110011101101
1011001101
1111001100111011
1111110101011101
1111111100010111
100011101
101001101
1111100010110010
101110100000
1101111111
101011001000
1100010110
100110010101
1000001011000
1100000101011
1010100111101
111110101110
111111111010
110011001110
110100100101
101100010110
110011001101
11011100010
101101111110
110100000110
10101100010
10110110000
100000101010
10110101010
101111110111
1111100011101101
1111110111011111
1111111101101001
1111111111001000
1111111111111000
11001001
1111111110110110
1111010010101000
1111100111100001
1111100011010100
1111110010010001
10001110001
110001000011
111011001011
111110111
1111000110110111
1111011101100010
1001110000
101101100
1101001011
110000000
10011100101
10001111010
1111101100100010
1111011111000100
10101001
11001101010
10010011011
10100100101
10100011
10111111
11000000
100100111
1111111110001110
10101010
11100010001
101100111000
1111110111011001
10100
1001110011
1011100000
11101000100
100000101
1111101100110101
11001100
100000001011
101001000011
100111111010
10111111100
100100110
1111110100111110
1111010010101000
1111101110110000
1111111000101101
100010001010
10011010
100111101
1111111011101000
100001101
