1111111100011001
10110
1111111101100101
11110110
1101110
11010011
101
1111111101000110
1111111101011100
1000
1111111100111011
1101011
10000001101
100110011
1111110101100010
10001
10011
1111111100001101
1111111100101111
1111111100100010
100011110
1111111110010000
1001010
11010100
1111111010100110
1111111101111000
1111111110100101
1111111101111010
11011110
10011110
10111110
10111000
1111110101100000
110001000
110011110000
110010111110
100100000110
1001000100001
1010100001100
101100001000
110101101000
100110101011
11101101011
10101010110
1111011101111110
100101000
1011010000111
1000110011101
1000001000111
1000000001011
101010010000
11101110110
101001100
1111111110000011
1111111010100110
1111111010111100
1111111110001011
10110110
1111111010010010
10100111010
10111011110
1111111010010111
11000000000
1010101001001
1111110111000000
1111110100100000
1110010001
100100010111
11111110101
11101011111
110010110111
1010011111110
111010010100
100000011
1110101110
111000011010
110010111111
100010100100
101110010010
10111010
1111110100010100
1111101111101110
10001011
11101100
1000
101011100
1111101011101100
101011100101
100010010001
1101010
111001110000
111000011101
1111111101101100
1111100001101111
1111100111110010
1111110000110100
1111011001111111
1111011011110000
1111100101000100
1111111010010011
1111110110110001
1111011101100010
1111111001101010
10110001011
110111
1111100010000110
10001001100
1111111110100110
1111110111111110
1111011111010011
100100000000
11110011
10011
1001000
111011101
10110100000
1111110011010010
1111110000101110
1110111001000000
1111101101100110
1111110100100001
1111000011001000
1111000101101111
1111010011101111
1111001010001011
1111010010001100
1111011010100110
1111011110011011
1111101001110101
1111101000101101
1111101011011010
1001001110
11001001
1111111011001111
1000000001
111010001000
110100001101
1111110001000001
1111011000001111
1111111010111000
1111111010100110
1111111100011110
11010111001
101100000
1111111000011101
1111111001010100
1111110111100111
1001001101
1111011110100010
1111101010001101
1111101001110100
1111100100110011
1111101001000110
1111001110100001
1111011000010010
1111011011011101
1111100001111011
1111101001001000
1111100000001001
1111110000100001
1111110101000110
1111111000001011
1010010000
100111111101
11111010110
1111010111011011
1111101101001100
10000101000
10100011
1111101000111101
100100111100
1111101100100011
100011100110
1111110100011100
1111101110110010
1111101100101111
1111101100010000
1111101010010010
1111011001110111
1111101011100100
1111111101011000
1111110111101000
100001101
1111111010000011
1111110111101000
1111111001111100
1111111000100110
111110101
110110111
1111111011001010
1111110110000101
111101101
11000110100
1111101111001001
1111110111011111
1111111011111011
1111111010000110
1111010110010101
1001001000
1111101011100100
1111100101110101
1111111111101101
1110111000100000
1111100100111111
1111100111010110
1111111001100101
1111110011110111
1111111110101101
1000111111
100101000
11101111101
1100101100
11110001
1111111010011111
1111111100010011
1000011
1111111110001011
1111110101100000
1000111101
1100001000
1111111001101101
1111101010010000
101011111
10001110
10111000
1111010001000001
1101101011
1111100
1111101101010010
101110110
1111011010011110
1111110110111100
1111101101101111
1111111001101010
101111
100101111
10011100
1111000111
11011111010
1101001000
1111110010100001
1111111111001100
1111111100000110
1111111011000101
1111111110001010
10100100000
1111111100001000
1111100110
1001010110
10100010010
1111111110011001
1111100010101101
1111100111110110
1111100011011110
11010110011
1111011110100100
1111011011011101
1111001101010001
1111010111000111
1111110000111000
1111101111101000
1111110011110010
11101010
1011101100
1100111
100000101
1000010111
1011110000
1111110111101101
1111100110011111
1111111100010000
1111111100111110
1111111000111001
10100110001
1111111011111110
111001111
100011010
1000000101
1110110111
1111010111101110
1111100010011010
1111110011011000
1111101110000010
1111011110000001
11100101
1111001110100101
1111011100101000
1111110000
111010110
1111111000101010
11101111
1111110100010111
1011111100
1000100000
1100110000
1011000100
11100010
1111110000011010
1111111001010010
1111110110000000
1111100011001111
1111111001111010
1001111011
1111111000011000
1000001010
101000000100
10100101100
1111111010111001
1111101010100101
1001101010
100100000
1111011101000010
1111101100101100
1111110001110100
1000010001
1010101101
1111111101111110
1111101111010001
1111110011010010
11100010
110101000
111001110
1101000010
11011010110
11111101
1111101000001110
1111101000010111
1111101000110101
1111010111000111
1111100110110010
1111100010100110
1111111000111010
1100110101
1011100100
1111101011001000
1111110011010010
1111110110101100
1111011010100100
1111111100101110
1111110000011011
1110110101111011
1111011111101110
11000001001
110100010
1011000001
10100
1001001001
10101001001
10001011111
11111010000
100001010101
100010111110
1001001111
1111101110101010
1111011010100010
1111010110001001
1111100001001100
1111010010100001
1111001101101010
1110110000101010
1111000000010110
1110110001000111
1111011100010011
1111011000010110
10000101110
1111110110011100
1111011101010101
1111101001011110
1111011111101110
1111101110100000
1111111001110010
1111110011011110
1111111111110100
1100011001
11100110010
10011110100
10011101011
100100010010
100101101010
100101101101
1111111100111001
1111110000011100
1111101001111010
101111
10010110
1111111000101011
1111010000111001
1110101000010000
1110011111000101
1110100011101111
1110110000010010
1111010011100111
11001101001
111100111
1111100011100111
1111100110000101
1111110100111101
1111111101100101
1111100111011011
1111110011100011
10011000001
100100001110
10100101011
10011111101
10101110000
100101101000
101101010111
1100101101
110101001
1111111001001100
1111110101000000
1111101110110101
10000110101
1001100001
10110110
1111011011000000
1111010111011101
1111011110010101
1111100110101001
1111100100100100
1111111000010110
10010111111
100110001010
1111110111010100
1111111111010111
1111011001000111
1111110000110100
1111111111111101
11010110000
101011011001
11111010110
100011110011
100100001110
101100000000
11001010100
1111101010001101
10110011
1111110001011010
1111110101000000
1111110111111000
1111110011110010
10001010110
1111111010000000
1111011100111100
1111011001001110
1111011110100101
1111110111000101
1111111010010010
1111011101010000
1111110001101000
1001010
1111011111100110
1111101100111110
10010
1111100001010101
1111111000011011
110100001
1111110011010110
1111111111101001
100000111111
10111101001
11000111101
11011100110
1010000111
1111110000011111
1111110000000111
1001100100
1111111111001000
1111011011111010
1111101001111011
1111111000001000
1111010000101101
1111010100111100
1111010101100110
1110111011100101
1111111010110100
1111111010111111
1111111110000010
1111110001001111
1111100100111000
1111011011100011
11000111
1111111100100101
1011001
1111110101100000
1111110101100001
1111111000001010
1111110111100111
1111111001001011
1001110101
11000000101
10011011110
1111111010000011
1111111011011110
1111111110101010
101010
1111110100000010
1111100001010001
1111110100010101
1111010011100001
1111010001001001
1110110011100001
1111010100110100
1111111010011001
1111100001101011
1111101011110000
1111100110010000
1111100100001111
1111101110101001
1111111101111111
1111111000011111
100000000
110010001
1010
1111101001010011
1111100010001001
1111111011111001
111100010
11000000001
11100110010
10010111
1111110011000011
1111011010001000
1111101100000110
1111110101011011
1111110011110001
1111011100000101
1110111101011111
1111011011000011
1111110011011001
1111110010011110
1100100111
100010110011
1111100110111101
1111100001101101
1111100000001000
1111101101010101
1111111001011011
1111110101001111
1111110001000000
1111111111000001
1111101101111010
1111011001000011
1111100110110111
1111101011101101
1001011101
10111011110
10011111111
1111111011010100
1111101100110101
1111101101100010
1111110110000101
1111111111100100
1111111101100001
1111100011000000
1111100010110011
1111101001110001
11100101000
111100000
11110001110
1111111101101001
101
1111111000000101
1111001011010111
1111100001001000
110110111
1111111110001011
1111110001010011
1111110111111000
1111101101100010
1111100000111011
1111101011100110
1111101011111110
11110010
1011010101
1111010111
10010101011
1101000001
101101101
100100110
1111111011100010
110001100
1111111000100001
1111010001110101
1111100101001000
10100011001
1111101000110111
11110001111
11000100110
1111101011101011
1010110110
110101
1111101101010000
1000010110
1111011011001011
1111110100111000
1111100110011100
1111110100101100
1111111101110100
1111110000010011
1111101011011010
1111111111101111
1000011111
10010101010
11111010
1101011010
1011001011
101001011
1111111011000100
1111100110001010
1111110001000000
1111110011101011
1111111011110101
1001100101
1111110010111011
1111110110101011
11101111100
1111010101
1111111100110001
1111110110100000
100100110
11000100
1111111000110110
1011100110
1111111110010011
1111111000100111
10001000
1111101100010010
1111110010010010
1010110
1111110110000111
1010101011
11000000100
110010000
1111111011000000
10000101011
1111110100011110
1111101001011111
1110111101111001
10011011000
1111110110110001
1111111001010000
110101011110
1111110011110000
1011111
101001011
1111011001111011
10001000010
1001010110
11011010
110100011
10101100100
10100100111
1011011010
1111100101
1111111110011101
1010110110
1010110010
1111111101001000
1111111100110000
1111111011111111
1111111001100010
11111000
100001100100
10101110010
1111100101011000
1111000001001101
1010110100
1111100101101010
1111101101101001
110000100010
11101
11100
1111111110101010
1111001110011100
1111101011
111101010
1111110100101101
1111110011110101
1011000101
10010101110
1110100110
100011010
1001010011
111101000
10001000110
1111111101101011
1111110111110001
1111110011001111
1111111111011000
10011001000
11001010111
11001000101
1111110010100000
110010100
110010010111
11110001011
110011011010
1111111010110001
11011000
11100001
1111111011111001
11001100001
10011000010
1111100111101111
1111101011111010
10110001010
100111001
10000100010
1111111110011101
1010100011
1110111011
10111110011
101011010001
1111111000001100
10010
110110110
100110001000
11100000011
10011000000
1000011110
1111110111100000
100110111001
100110000001
11010110011
11010001111
1111111000011100
1111111101100100
11010011
1111111111000100
100100001
110001
11111110110
1111100010000111
1111100101111011
10010101
1111100110011010
1111110011110111
1111110011001000
100000001
10011001111
1111111110010110
10100110100
11101110111
100001011
1101010111
1111111001000110
1111111011101101
1111111001000011
1111101010110100
1111110110001000
1111011101111111
1111110101011010
1111100011111001
1111111100000101
1111111111011100
1111111110011011
1111111011000000
1111111111010111
1111111100110101
1111101000000010
1111011001001000
1001000000
1111110011111101
1111100011101001
1111111000100101
1111011111100010
1011100111
1111110001010111
1111010000101001
1111111011110111
1101100
1111111011011100
1111000101110001
1111010010101101
1111110101011101
1000010010
1111101001001111
1111100100001000
1111111001010010
1111000
100001101
1111111111000000
1111111101001110
