1111111011011010
100110101
101001110
1111111010101101
1001011
100010
10110
10101111
100000011
1111111111100010
10111
1111111100011011
110001100
10010010010
10001100110
1101100
1111111011011111
100110011
11001110
1111
1111111011010011
1111111100100001
100111100
1111111010101011
1111111100101100
101011111
1111111011000110
1011010
10001
1111111100011001
1111111111110001
1111111110010001
1111111111010010
110011
1111101000010111
1111101100111110
1111111100111000
11100011
1111101111101011
1111111100010000
1111100101100110
1111111110011100
100110001111
111010001011
1000100001001
11101101001
1111101101011100
1111100101111110
1111011011101010
1111101011011101
1111110001011011
1111111001101011
101100
10100111
100100111
1111111011011001
100001010
100110101
10101110
1111110101111111
1111110100101010
1111110010100001
10100101100
1111111011110000
1111101000111111
1111101100
100000101010
11111101100
1111111110011011
1111101000
10010000100
10110101
11100100011
1111010000110001
1110110110010000
1111000101001000
1111011110110010
1111100101100001
1111110111111001
111000100
10011011100
10100100100
1111111101101000
1111111101000011
100101
1101101
11010110100
11100001
1111101010100010
11111111
1111100001000011
10100100000
100101111111
11001101100
11100010010
110000010
110001001000
110001001010
1010000110
1111111111010001
1111111011000111
1111110101010111
1111100010001110
1111101000100010
110101111
1111100110011111
1111100000111001
1111100100011111
1011101111
101111001101
101110010
1111111011000111
1111111011100110
111110
100010010111
11101011110
100011110010
10100001010
11001110100
101000
10001011101
10110111110
110100011111
101101000001
1110111111
100001111111
10100011101
11101100110
1010000111
101001011
1111110011111010
1111100011010100
1111101010010000
1111110011101000
1111111101001011
1111110001110000
1111010011111010
1111011010011001
10110100000
1111101101100101
10100001
100000010
100010110001
1111101011000110
101100101001
10010111111
100111001
1111110111010100
1001101001
100010001011
10011101011
1111000011
10110010
11100110001
101110101
10000010101
111111000
10101101101
10011101110
10001001010
100110001
10110110
111101101
1111110001010111
1111110001010011
10110111000
1111111111001001
1111110101011100
10111001
1111111110111111
10101111000
1111111011000101
101110110
1111111101001100
110100000
11100101
10000010001
11011010011
101100110000
110011000000
11110001000
100001101001
101010001101
101011111110
111010011100
110011110000
1000100101010
1000010101111
10111101110
1111000110
1111111100110100
1111010111000110
1111011110100001
1111011010000011
10100010000
1010111
1111111011100011
100011010101
100001001110
1111111100101010
1001111011
1111101011100000
1100100010
101111111
10001110
100101011101
101111100011
10110000001
100010111010
11011111101
100111000011
110001111010
111001001000
101111101010
111101100111
101010001000
10111101010
10001101100
1001011000
1000000100
1111011100100001
1111110111101010
1111110100111100
1111110000110001
1111110011100010
10011100
1111011010010001
1111110011111101
1000111011
1111111000010100
1111110111100011
11001111
1111010100
10011110010
11111000110
10110001110
1110101101
1011110001
11010000110
100101011101
1000010101100
101100000001
101001000010
1001001010
100000001
1111111
10000000110
11001001
1111100111111101
1111110001100101
11010011
11010010111
10100111100
111010111111
1111011011010100
1110100010
11001001100
10010011000
1111110100100011
1111111000100111
1111111110101111
1101110011
10101110101
111110
1110101
11011110101
10010010111
11101010100
1000101101
100110111
110100010
10000011001
1111111011010111
1111110010010010
10100011110
1111111111100010
100011101011
11110000110
111010010
11101111010
10001111000
111010101000
1111110011001001
1111111001011110
1111111110100110
1111110110110100
1010010101
1111110100011010
1111111101011100
1111110010111101
101000001
101111111
1110110
1000011001
1100011000
1111111001111100
1111110110000011
1111101000111100
1111111001010100
101101111
1010110100
1111111101000011
1111101000100001
1011110001
100000110100
100110000100
111100011
110010001000
10000000100
10011100100
10110100110
1111110011100001
101100010010
1111100111010100
1111111110110010
1111111101101001
1111100110101000
1111110110110110
101111011
10001001
101010100
100001011010
10101111101
1000100111
1111010111100100
1111111000100011
1111101111010001
110000010
1111111101011010
1111111001010100
1111111100
11011110000
10011101010
100011010
11001010011
101101010011
1111111111011101
101010111111
111101111
1111010011111000
11001110011
1111110001010011
1111111001011100
1111110110010100
1111100101101111
1111110011011000
1111101010011001
1111101101101111
1111111011010000
10111011001
100111001110
10100110101
1111100100100101
1111110100011111
100100
1011011010
1010111100
1111111010111100
1111101011010011
1111111010000101
1111010001100111
1111011000100000
1111100101011001
101001100
1101000
111111111
10100010101
1111011010000000
1111111110100101
1111010101001101
1111100011000100
1111110111100000
1111101110010000
1111101011000000
1111010110010001
1111011010001010
1111111000010111
10000011100
11011001011
1111110111110110
1111111000110110
1111111110111001
1111111111110111
10000101010
1111101011
1111101110100111
1111101011101101
1111010101001100
1110100111110010
1110100101110000
1111001110011101
1111010001010000
1111110110001001
1010100000
101010011001
1111100000011110
1111011010101111
1111010100000001
1101001
1111111010110111
1111110111001001
1111100110001111
1111011000100101
1111001111101001
1111011001101000
1000010
101110111
1111111010101011
1111110001101011
1111101101010111
1111110101001111
1111101101110001
1111110001111110
10000011
1111001001110001
1111100011001111
1111001100110110
1111101101010001
10110110110
1111011011000011
1100101001
1111110111000100
1111101111100111
1111010101111000
1111011101100011
1111110001000100
1111111010001111
101001101
101111001
1111101001110001
1111100011111011
1111101101000100
1111110010100000
1111111010011000
1111111101000011
10001111
1111100011101001
1111100001001011
1111111011000001
1111011111101001
1001010
1111111100110010
1111001101000100
1111100011010101
1111000110001100
1111101001111010
1111111011110110
110011
11001110101
100000101010
1111111
1111110011010011
10100011
1111100010000100
1111110101101110
100001100
1111111000000010
1111111010110110
1111111100100010
1111110111001011
1101001
1111111001100011
1111101011010011
1111011011010000
1111100110101011
1111010111101001
1111100101111010
1111101010000111
1111100111001111
1111100001011000
1111100101101011
1111110010110011
1111001111101001
1111011110101100
1111100000100000
1111111110110111
1111111011001001
101001111110
1111101010011101
11111010110
1111001
1111101100110110
1111100100011001
1111111000101001
1111110001001000
1111110000010011
1111110110100011
1111101110010000
1000110001
1111110101110010
1111101000011000
1111101111011010
1111100110100111
1111110001011101
1111100110000110
1111111110001110
1111100110011010
1111010010101100
1111101101101000
1111110011001010
1111100010101001
1101001010
10010110
1111111010111100
100100000010
10111011111
1111110000110011
1111111101010000
1111100001110011
1111101010000011
1111110100001101
1111111000101110
1111111010001111
1111110111110000
1111111010100000
101010000
1111111011111110
1111100001111001
1111101100100010
1111101100111001
1111100110101011
1111111101100011
1111111110101011
1000111011
1111111000100110
1111011111100010
1111110101100011
10110010
1111011100011111
1010111011
11101101000
1011010100
1010111110
10111000011
11111001
10100010010
10111001000
10010100001
11010011011
1011001111
101001010
1111111010110110
1111110001110000
1111111001111000
11011101
1111101000010101
1111101001000001
1111011110100011
1111111011001000
111100101
101010000
100100001011
10000010001
10001011011
11110110100
11001110101
1101001010
100000011010
1111111000011101
100101010111
1111111111111110
1111111101111001
1111100101001011
110000000110
1000011111110
1001101011001
111000001100
1110011100
1111111100010010
1111101001001111
1111100000111010
1111101011011001
1111101111011110
1111111101101100
1111111110111110
1111101110101110
1101001110
11101001000
1101110100
100010100111
101011011011
100100001101
101000100110
101101000101
101100101100
11110001111
1111111000111000
1110000000
1010001111
1111110110001011
1001000001
10111110111
111001101111
1010111000001
1010111110110
1001000000
100010110
1100001011
1111101111000111
1111110001011010
1111101011001011
1111101111100111
1111111011111010
1111110111100011
1111010000
100101110
1111110011011011
101001100111
1111111001
110000100001
100100000100
10001001010
100000011000
10101111110
1111111001000011
10001100101
1010011101
1111111111011000
1001101111
11101111110
100101111001
1100001101111
1101100110010
100011011000
11000100011
10100000111
1111111010001000
11001101
1000100001
11110101
110001010
1111110001011001
1111111100101001
1110000101
110001101
1111100010000001
101111110
1111110100101100
1110101000
10110111000
10101011000
11110001011
1111100101001111
10110111010
1111111111011110
1011101
1111111011001010
11011010110
1111111010111110
1001001010000
110010010011
100000011011
11011010110
1100001110
100000101011
101101101100
101010011001
101100000011
10110110001
11000001
10011100110
11101110111
110110000
1111110001110110
1111111111110100
1111110110001001
10011000101
100111011000
101010100000
10010100000
1111110011100011
1111111111111100
1111111011101000
1101
10010001110
11001010101
1011011100
1111111000011001
1110001000
11000001010
10100000000
10000101011
100010010100
100111101001
100110111000
111000110010
10111001011
1101110101
11011000110
111101011111
101111101101
10100011001
1100010100
110110000
1111110001000001
11110110
1010011101
1111101011001001
10111000001
11101000
100101011
101011111
10110111
10101111100
100011111110
1001010111001
10010001000
11000110100
1101100001
101000011100
110100010110
111001111011
1011001000011
1001000100010
110100001000
100000110000
1011101101000
1101101010010
1011110000011
1000011100000
101011101111
100111001110
11101000010
1111111101011011
111001111
1111111110010001
1111110100111010
1111111100110111
100110100
1111111011001001
1111111100000101
1100111011
101111000
111011010111
1011101011110
1100111011111
1010111000001
1100101110101
1100110001101
1100101000011
1000110010011
1000101110111
1100000001010
111101001111
1000100101011
1001101111110
1101110110010
1010110001000
1010110101010
1001011010111
111100100000
101100001000
10010000010
1000110011
1111111111000101
111001
100111100
1111111100010010
11101000
11011000
1011011100
11000111111
10011011010
11001010111
100011111101
110010001111
100100011100
10111100100
100011011101
111100000100
1001001000000
101101000101
111011001110
1001110110110
111010001001
11001101100
11111101
1001111011
1001110101
10001111101
10000000
10010011
1111111010110111
111110
