10001011
1111111100010100
1111111011011100
100000000
1111111010101011
1111111010110111
1111111110110111
11011001
101001
10001000
1001100
1111111101111111
1111100011
10100100111
10101100
1001101
1111111
10101101
1111111110011100
1111111100010000
1000001
100
11001101
111111
1111111101001001
11010010
1111111100011111
1111111100101100
1010011
11000001
1111111011010010
1111111100101110
1010100000
1100111111
101101011111
111011001010
100011110110
111101100000
110011100111
1110111011
100001110101
101101001
1111000100111010
1111010001000010
1111011101111010
10110110010
1010100011001
1001110111100
111010100000
111001001001
101111100111
101011010010
11000011
101000011
1111111110010111
100101111
11001000
1111111110011011
1001000100
10101110110
10100100010
101000011101
11000010000
1000011001111
111101100001
11111110111
11001101000
10100101110
100111101010
10010010001
100111110
110000111
1111111101011011
1111111100100110
101101110
1000001000
1111110010001000
100011010110
101010010
1101111010
10000011111
1010111
100111111
100000010
1111111111000100
1111111111000010
1111100111000011
100001010010
1011100
101001111111
101001110010
1111110100000111
1111110011101000
100111100
1011100001
1111110001010000
1111100100111110
1111110100110000
11100100010
1110011111
1111111011000110
1111110001100100
1111100000011010
100001100
1111111110011110
1001010001
1110110101
1111010100
1000011011
1111101010100101
101100
1111111010111001
110100
1100111
1111101110011100
101100
1110101000
100001001101
10101001011
1111111111001110
1111100010111001
1111111101010000
1111111110111011
1111001011011110
1111011111101010
1111100101010011
1111100010010001
1111111010001011
1111101100111011
1111110111011100
11001101
100001110
10001100101
1111111101001100
10010000101
1010111110
11010110111
1000001100
1111100010001000
10010100000
100111110
100111000
1110100010
1111110001000110
100110100001
1111111111000111
1111110001010011
1111110011010001
10010000010
1111111110011011
1111111101011001
1111000111010011
1111101110101001
1111100111011010
1111110010110110
1111111001001101
1111101011011111
1011000000
1111000111
110000010
110111000
10100100100
11010111101
100101111001
100010001001
1111011001101011
1010001110
11111110110
101010100
11000000
101001101101
110101100
10101111011
10000111010
1111110010010101
1111110010100011
1000101000
1111110000011111
1111011110010000
1111010111111010
1111011010011011
1111011110110101
1111101101100111
1100001100
1111110100100010
1000110000
1111111011001001
1111100011010011
1111101101010010
1111111110011110
100111000
11000111101
10100011100
111101101
1111000110101000
1111100100000000
1111111100001011
1111100101110101
10110000100
101000000
101000000110
1000000110
1111110011001110
1111101001111111
1010100000
1111110001011001
1111011111011110
1111100000110101
1111011001011111
1111100010110011
1111110000101011
1111111110100001
1111110010001001
1001100001
1111111001111111
1111010110010010
1111100010000111
1111001100011101
1111001011100110
1111010001100111
11111111000
1111111100001010
1010100000
1111011111001010
100010111010
1111111000101001
10000101001
1000111010
110000011
1111111111111001
1111110000101101
1111110101011010
1111110111101100
1111110110110110
1111011010011111
1111011101000101
1111001110100011
1111100101001011
1111110110000000
111011001
1000001
1001010110
1111001110111001
1111001000001001
1111011100001110
1110111101111100
1110101011010110
1111000011000100
1111101001000110
1111100101110000
1111110011011011
1111101010110110
1111110010100010
1111001001000000
11011001001
11111110
11110000011
1111110000100011
1111110001001010
111000110
1111111110000100
1111110000101110
1111101000000011
1111100000110000
1111100101011111
1111100000110100
10001000000
100100111001
1110101000
1111101100010001
1110111110011100
1110111100100100
1111100011110110
1111111110000011
1111100011011101
1111001000111111
1111000001111011
1111011111011100
1111101110001100
1111100011011100
1111110011101011
1111100001100000
1111111100000000
1111111110101001
111011000
1111111010001110
10011010
10000110010
100010100
1111110001110010
1111110111110100
1111101000000111
1111101011100000
1111111111001000
111001110
1100111011
1111111010010110
1111011001100010
1111000101110001
1110110001100010
1111011000011111
1111101111110011
100110011
1111100100000101
1111000101101101
1111101001110011
1111100001011111
1111011000110010
1111110111010000
100011100
1111101001100100
1111111000101100
1111011100101010
1111111000101100
1111110101110000
1111111101100000
1111110110010101
1111100110000111
1111101010011010
1111010101100101
1111010010110101
1111101110110111
1011010
1111110001100100
1111111011100010
1111100101010001
1111011010011000
1111100100001101
11000010
10111001100
1111110011111101
1111111001110011
1111010001011100
1101101
1110110011101101
1111001001011101
1111000
1111111101010010
1111110100001101
1111101001111111
1111011111101110
101011111
1111111111000110
1111111100111000
1111100111111001
1111111010110100
100100111
100111001
110011111
1111011011
1111111010000101
1111110010101000
1111000100
1111111011100000
1000110101
1010110
10100001010
1101111111
1111111100000001
10000111
1111111010100111
11000100
1111011100001011
1111011110001101
1011001111
11011
1111100101011101
1111100010000110
1111101111001110
10011101100
10001101010
1011100111
1111111011011010
1111111111101100
1101101110
1101111100
11011100101
10000000010
1111110100110100
1110101011
100011110001
101011010
1011101010
10101111101
1010001001
1011111111
1101010100
10100111110
11101111110
1111111011011011
1111111111000100
100101000101
1000100101
1111110111
1111101101111101
1111110100010011
10010111111
111000
1111011110
1001001000
1001110101
111111100
1110010000
11001110011
10110111010
110011
11001110
1100100100
11011100001
1111111010111011
1111110011110000
10011110
11010000
1111111010011001
11111011001
11111001001
11011101100
1111110100011100
1111110011110011
101011010010
10111000
10110000010
11101101101
1110110001
11001110011
1111110101011000
10001010100
1111110010000011
1111111011000110
1011010
1110101100
110010111
1100100100
1101100000
1111101110000100
11000
1101110101
1000110111
1111110110101011
1100010000
1111111101010001
1001110110
101001101011
10010111001
101110011
10000011011
1111111010001111
1111111111100100
101
1011001001
111011101
1111111111010100
1111110011110100
1111110000111111
101111111
1011011110
1111111110110001
110001
10101011001
100010100000
10001010011
1010011
11111000
10001000000
1111111111010100
1111111001111100
10011111
1111111101101110
10000111
10110110100
100111111110
11101110001
11001110100
10011010001
1111011101
1111101010100010
100011001
101101010
1111111110001111
10010110011
1111110111111000
1111101011011011
110100111
1111111100101110
1100011010
10010110011
11100100101
11011001001
1111101111001100
1111101101111111
11010110
1111111111101000
111011111
1111110010001000
1111111000100100
1111111100101000
1111110101100111
101011010
111101010
10000011101
1111100011011111
1111110000100110
100010100
1111111110101011
1111100010111101
11001110
1111101011110111
10101111110
1111110101
11110100
1111110111011101
1101
1011001001
10010001111
10001001110
10001111101
10010001111
1001111010
1111111101110111
10110100
1000011000
1111110100100101
11010111
1111111000111101
1111111100110011
1111111000010110
1111110100011110
1111110011011010
10110100
1111110001110001
1111111110011001
10001110111
1101101010
1111010011010101
1111101111001011
1111110000000011
110000
1111111010001101
1111101100010011
1100110101
1111101100101100
10011101110
11001100101
111100001011
11100101000
1111111111000001
1111111011110101
100100101
110100000
111000111
1000010001
1101001100
10001100001
1111010101100110
1111011001011100
1111100001001111
1111100010001010
1111100110011000
1111010101100001
1111101010110110
10000111
1111100100101000
1111111000101011
1111110001000110
10
1111100101100001
1111101011110001
1111111101000001
1111110011010000
1111111011011011
10011111110
10111000000
111110001
1111111001111001
1110111101
11101001
1111111010100011
111010110
10001011010
1111110100000000
1111101111110000
1111001000100000
1111000001011110
1110111010010111
1110110110010100
1111011011101001
1111100011100111
1111101110011100
100111
1010100
1111011110101100
1111110000011001
101110010
10110100
1111100100001101
1111101010101001
1111101100111011
1111010000001010
1111110001010001
1111110000101100
1111111001000100
1111111000011111
1111110110111000
1111110000001001
1111110110110110
10010000100
100001100111
1111010001100001
1111011101011100
1111000000110000
1111001001101010
1111000001011010
1111001011000011
111010000
1111110110101101
1111111010010010
1111111011101000
1111111111110100
11101011111
1111110000101000
100000100001
100101
1111001110111001
1111011101010000
1111011011101001
1111001000111000
101011
1111100110001010
1111101011110100
1111100010001011
1111010110011110
1111100100100000
1111110010110100
1111110111111011
1111010011110111
1111110001000000
1111011101010111
11111011
1111111010011011
1111000111000001
1111011100110111
1111100100100001
1100
1111111000101001
1111111010100010
100100001
10100000011
111011010
100011110011
1001001001
1111000010110100
1111010101111111
1110111110110001
1111010111110100
1111010111011101
1111010011101001
1111010111011010
1111010010100110
1111000101010000
1111000110001111
1111001000001010
1111010100010011
1111101010110011
110100101
1111111011100000
10000100111
10100101011
1111011010110001
1111100111110000
1111100001000011
1111111100110110
1111111110010101
100001000
1111111110110100
1111101100011101
1111101100000110
1011010100
1111111001011011
1111110011011110
1111010111100000
1111001100100000
1111111111101101
1111110000101011
1111111011100011
1111111010110001
1110110110110010
1110110110010000
1111001000000101
1111101001000110
101001000
1111110000111101
110000011
1111111010010101
10110111101
100100011100
1111100001011110
1111110110101100
11101110100
1111111000000000
1110111
11111010
10111110
101110101
1111101000100110
10111011
1111100101011111
101101101
1111100110010111
10100111011
10000100010
101010001
1111000001
1110111100110010
1110110111011001
1111100101000101
1111101000011000
1110110100000010
1111011101011000
1111101101101111
1111111110001100
100010
1111110111000101
1111111010000111
111110001
1111101010001010
110011100
1111111110100110
1111111110100011
11101101
1111111111101001
1111111111001001
1111110011010000
10100011
1010000110
1111101110100111
1111110110000111
1111101100010011
1111111101100101
10111111101
1111111011001010
1110100101110110
1110111000111110
1111001011001101
1110111110001011
1110110110000011
1111100011011001
1111011100000010
1111111011011100
1111011100010101
1111100001000111
1111010111010011
1111011011000100
1111101111100101
1011101
1111111111010001
1111111100010110
1111111111000100
110000
1111111011000101
100101111
1111111001111100
1111101111111010
1111101111111110
1111101010101101
1111011111110110
1111011010110001
1111001110111110
1111100010001000
1111100001011110
1110111111110110
1111001000101100
1111101001111000
1111010111011000
1111000110111001
1111000110000010
1111101010111011
1111100000101111
1111100101111111
1111101010011101
1111111100010010
1111111101000110
1111111010100001
100011111
10110100
