10100101
1111111110010110
1111111100001001
1111111101100001
100011000
1111111111001100
1111111100010010
1100000
1111111111111011
1111111101110110
10000110
1111111100111111
110001110
1100001000
1010011111
100000111
1111111100000110
1111111111001010
1111111110000110
100011111
1111111010101101
1111111110110101
1111111111110110
1111111101101111
100011000
1111111010100101
100101100
1111111011110000
1111111111101100
1111111100000000
1111111100010001
1111111010110001
1111111101000100
1111111010011110
1111111111001101
1111110100110110
10101011011
10001011000
1111100101011000
1100100110
11010000
10001011000
100001110110
111000000001
101110001011
1001101000
1111111010001000
1111000010001111
1111010000101011
1111110010000001
1111111000011110
1111110111110100
100011100
10100100
1111111010101011
1111111111111001
1111111101010001
10111111
1111111010001111
1100011101
10011101100
1111011010000111
1111110110010111
1111100110111111
1110111000011011
1110110110100110
1111101100001100
1111111100011011
1111111011111101
1111111011000001
111110100
100110
1111110110001011
1111001010100000
1111001110111110
1111011110000011
1111101000011110
1101101100101101
1110010000100010
1111100100011100
1111110100011111
1111111110100110
11011001
1111111011001010
1111111101000111
1111111101110010
1010011111
1101010100
10011000
1111101001110001
1111010000100000
10000111001
1111100100
1111100100111100
1111011000010101
1111101001111001
1111111100010100
1111111010011000
1111011001000001
1111100000111110
1111110010101000
1111111110001100
1111111111010111
1111110111110100
100101011
1111111110001100
1111100111111001
1111111011011010
1111110010001111
1111111101100101
1101001100
1111111111000001
10001
1000111011
1111011110
1110101011
1111010000001101
1110111111001001
1110111001100111
10000000001
1111111011100011
1111110110010000
1111110010010001
100110001
1111101010011010
1111100111100010
1111110001001001
1110111
1111110100101101
1111111100110101
1000011110
10101000
1111101111101101
1111110110111011
1111111000111010
1101100101
1111101110111000
1111101010000010
11001100010
1111110000010110
101001000
1111111011000010
1111101101010001
1111101100101110
1111101011101011
1111011101110111
1111101011011011
1111011111000110
1111100000011001
1111110010101111
1111101101100000
1111110100110100
1111101000011011
1100001100
1110001111
10001000000
1111111100001100
1111111100001011
1111110111101010
10110001
1001001111
1111111100101011
10100101001
1111101110111001
1111100100100101
1111111011011111
1111111011100010
1111100110100000
1111111111010010
1111101011000000
1111110101011010
1111101001101100
1111011100001101
1111101100000001
1111100010001110
1111111110011101
1111111101100011
1111100100101000
1111110001100100
110110011
10111111
1011010100
10011001011
1010111100
10100100011
10000111
11010110011
100001111110
10011101100
10110001
1010111111
1111101101100001
1111110110111001
1111100101111010
1111111001000000
1111110011111110
10110011
1111110011110001
1111011100010100
1111010001011101
1111010101111010
1111100000110111
1111011010010001
1111110010111100
1111011001000001
1111110000100001
1111111101110110
10011011
11110000001
1100111110
100011111001
101100100110
10100101111
101001110
10011010000
10101001000
10101101100
11000110101
1011111000
11010111001
10101001001
110011111111
1111101000010100
1111110001000011
10100001110
1111011011
1111111100011101
1111010010011000
1111010001010010
1111100010110010
1111101110110000
1111100101110110
1111110010011100
101101011
11111110110
111100
10010101010
10011001100
101000111100
101001110001
100110010110
1111100000
10100010100
10011111110
10111111011
10000111011
11101111110
111011101100
100010111000
11000101010
1111110010000011
11010110011
10001100000
11101010110
1111100100000110
1111110000010000
1111111101011110
111101111
10111011101
1111111110010111
10111100010
101101011100
11110101001
10001111111
10111110100
110110001001
100100111110
10110110001
1111110111100111
101
111110111
10110101011
10000101111
1100010011
11100110110
100100011000
111111111000
110110001011
11000000001
11001001100
10111110101
100101111010
1111110110011010
1111111001101101
100010001011
110000101111
1000101100010
101111001001
1001001100001
11101111011
11001001011
11101111000
1100110100
100111000100
11111110000
1111111110101101
1111101010011001
1111101111110000
1010001100
10000101011
1011110110
11100010101
100011101100
10001100101
1101011001
1111111001011111
1001000111
110111111001
111100111
11011101010
100001100101
10001101011
1001001101000
111010001010
1100011101111
111110010110
100010011101
1100110111
1111111111100000
1000010
11010101
100111010101
1001110110
1111110100100111
1111010110010110
1111110011011011
100111111
111001100
100111101
1111111000101101
1111111011011100
1010010011
1111110011010101
1111111100010001
111011011001
110001101111
100111010
1111111110011010
10101001010
1111111011111010
110111001001
110011100100
1000101101010
110010100101
10011001001
1111110110110111
1111100111000010
1111011011001110
1111010011011011
1111101000111110
1111111011110011
1111101100001111
1111011010110100
1111110100000100
110110
11110110
1111111011111001
1111110101110011
1111110000110100
1111110111100010
1111011000000101
1111111101011001
1111111110001010
11111000111
1111111100
1111111110000110
11000111011
1011001010
110101110101
11001000
1010110
1110011110
1111111111001011
1111110011111011
1111011110110000
1111100001001111
1111011101111001
1111010100000100
1100000
1111110101010101
1111101001010110
1111111010111101
1111110001101010
10101110
1111111011011111
1111110101101011
1111100110001001
1011001111
1111100001001100
1111111001010110
1111111010010011
1111101001001100
1111110001010001
1111111101111110
101010011010
10101010000
1010011101
1111110010101001
1111101101011010
1111101101010001
1111110000001101
1111110101110100
1111111010100100
1111100110101100
1111011100100100
1000
1011111011
1111111010101100
1111011011001001
1111101110100011
1111110011000101
100100001
1111111111100000
1010001001
1111100110101001
1111110111010001
1111101011110111
1111101000101001
10010001111
1111101000101100
1111111011000011
10111110001
1111110011100110
1111111101011001
1100100010
1111111100111011
1111100000111011
1111100001010000
1111110101111110
1111101101101000
1111110110100010
1111111011010000
1010011000
11000
1111110110100010
1111100100010000
1111011010001011
1111100100101010
100001000
1111110000101011
1111100101101101
1111100010111110
1111011110001101
1111110011001001
1100111000
111010
1111101111010111
1111011101011011
1111111000010110
1010011000
1111100111100100
1111101011000000
1010001000
1111111001010011
1111110011001111
1111100011111110
1111110110010011
110000011
11100101110
10011101000
10111000101
100010
1111111000000100
1111100001000000
1111110111101000
1111101110101111
1111100101111100
1111011111101000
1111011010010000
1111011101001101
1111100011111110
1111101100000001
1111100111000100
1111110000011010
1111100000000101
1111110101001001
1
11101010011
1111011101111101
1100011
1111100011100001
1111110011011000
1111110001011000
1111110101100001
1111111000110111
1101111100
11111111000
11111111010
111001000011
110011100
1111110011010000
1111111010010000
1111111110111000
111101101
1111100011111101
1010
1111101010001100
1111010101101001
1111100001000000
1111110000111101
1111110110011011
1111011011000001
1111010011000011
1011011
101111010010
1111100111100110
1111111000000110
1111110100010001
1111010111011101
1111110100000111
1111111010110011
1111110100001010
1111111011011111
110101
10110000110
100011000110
10101101100
11011000
1000111001
10111010011
1111111000
110100011
1011011
100011101
1111100111101100
1111100011100011
1111101010100011
1111100100010010
1111011000110000
1111110010100100
1111010100111010
1111111100010111
10001101010
101001111111
1111111011111010
1111100000111011
1111010111001100
1111101100101111
10001111
1111101111011111
1111111110101000
11011
11010010
1111110110011101
11011011110
10000010
11010010
101100011
11011011
1111111111100100
101
1110101111
1111111111010001
1111011011000011
1111100101011010
1111110001101011
11000000110
1010011100
1111010101110101
110010101
1111111100000100
11101100011
1111100010100010
1111001101110011
1001000
1111111011111010
1111110001001011
1011100101
1100101111
1001010000
1110001100
110100001
1110101101
1001100111
1111111000001001
1111110000110110
1111111101100110
1110100011
1001001
101000010
1111110101011110
1111110100010011
1111110001110101
1111110001111010
10111000000
1111101110010010
1111101000101100
11110111001
10101110010
1111001001000101
1111110111001001
1111100101100100
101000011100
1011000111
110001010
1010111000
11100100
100011111010
1110111011
10100000
1111110101000111
1011110
1111110010111101
1111110101000001
1001001111
1001
1111110001110111
1111111001011100
1111111001111011
1001111001
1111101111011000
1111101111111111
10101101010
1111010001
1000001100
11001011011
11001010000
1010001000
1111010001101111
1111101000000001
11100100101
110110111111
1111111011110010
1111100001
100001111000
11101100101
1111110011110011
1111101100100110
110110010
10000000101
1100110011
1000100010
1000110001
1111111110111000
1001000011
1111101000111001
1000110100
10000111
1111110101001010
101010111
1111110000011000
100100000110
1111111111010011
11110000010
1111111111000000
1110101
1111011100001111
10001101111
11010011101
110010011001
11000011100
1100001001
10000011111
1111100101100101
1111101010101100
1111111011000110
111000000
10000110100
11011010111
11010101111
1010001010
1111111111101110
1010001000
1111101000011010
1100011101
1111110110100000
1111111101001101
110001001
11011000100
1111111000010101
1111111111001111
1111111011000100
1111111011101111
100101110
10001000101
100001111101
1100111101
1111110101110101
1111101001110110
1111111001010110
1111101000111111
1111100010001100
1111100111010100
1111100011010101
1111000110000101
1111011011010000
1111110101010110
111010010
1111111100111110
1111111100001001
1111111101110000
1111110100100010
1111111110111010
1111101010001101
1111100011000111
11100010
101010000
1111001100101100
1000000001
1111111100100011
1111111101000011
101010111
1111101011011010
11100000011
1111110110111000
1111111111001111
1111111010111100
1111110111100110
1111011110100110
1111011111101011
1111101001100010
1111110111110011
1111111100100000
111001001
1101101000
110101100
101000010100
10011110000
1110011010
1111110110000100
1111111111000011
1111101110010011
1111101101110101
1111110101010100
1110000011
1111100011010000
1111101011010011
1111111111000011
1111111010111001
10011010
1101001
1010000011
1111101000110000
1100110011
100001111011
1011011011
110100010011
110101110011
110011011111
1001011100010
110101111100
1011010011111
1001100100110
1000011000000
1000010110110
101110000001
11100110000
1111111111011110
110100111111
101010100011
101100000011
100011101001
1111001010
1000011110
1101110
11111010
1111111010101111
1111111101001110
1111111101100010
1111111101000100
1111111110001011
1100001100
10011111000
10101001011
11001100110
10101010110
101101101000
100111001010
1111111110111100
10101010110
1001000001111
11000011000
11011011000
110010111011
101001000110
10110001001
110001
1100110001
1110001100
1111111100100010
1111111101001011
1111111100000011
1111111110001111
1111111011101110
