1000101
10111111
1111111110100011
1111111011111100
1111111101101001
111110
1111111100000010
1111111111011001
1111111100001011
1111111100000011
100000110
1111111101100111
101110
1111101110
10111011110
1100101101
1111111011010110
1111111111111110
1111111010110101
1111111111100001
100111000
1111111011000111
1111111110110111
1111111011000101
1111111101011011
11100000
101001100
1010111
1111111011111111
1011110
1111111011111011
0
100001000
1111101100000110
1111000010000110
1111000000010001
1110110001100111
1110000101010110
1110100100010111
1110101111011110
1110100011010001
1110010100000010
1111110010001000
1111111101111000
1001001110
1111011010001111
1110101011111111
1111101111001111
1111011010010101
1111010011000101
1111100100010010
1111100110011000
10011010
10000001
10101100
1111111011111001
1111111011110101
101010100
11010011
1111101001001001
1111101000110110
110110
1111111010011001
1110101110110011
1111111110101101
100001010011
1100000110
11001011
1101010010
10011011110
10000010101
10001010111
10001010001
11011111000
1111111011100001
1111111000011111
1111111100100000
100111
1111011011000101
1111100111000000
11000101100
111110101
1111111110100110
1111111111011100
1111111100111011
1111111111011101
10010010011
1111100001101111
1111010111001110
11101000111
11100101100
1111111100001110
111001111
1111110100000000
1111100000001110
1111001110110111
1111011000111011
1111011101110010
1111111111010111
110100011
11110011100
11100100101
1111101101010100
1111101111111110
1111101100010110
1111100001010101
1111110110000001
1111100110101001
11110110000
1011011110
1111011111010010
11111111
1111111100100100
11100010
1111110001101100
1111110010001111
111110101
11101010011
11011001110
111100101
10000100010
1111101100011010
1111111000001111
1111100011001110
1111110001001001
111111111
1111110011100010
1111101110100111
10010001
10000101010
1101111011
1111111011011000
110011
1111111011001100
100001101101
1111011111011011
1111100000111011
1111110111101100
1111101011110100
111000010
11100
1111111011000001
1111111010100000
1110110101
111001010001
11111010101
1011000011
1110110001
11100011
1111100111001100
1111101011111110
1111110100000011
10001010110
101001110011
100101010010
11010110111
101011100
110010000
1011101001
11011011101
1010000111
1111101111010101
1111101011110001
1111101111010101
1111110101110111
110100
1111111100010011
1111101001110010
101000101
111111100
11110100010
110101000110
11001101000
10110101111
1010001010
1111101000111001
1111101001100011
1111100011011101
1111100010000000
1111100110101001
11101000
100010000100
101101010001
100100001100
10101010001
111011100
1111111011010100
1111101010111001
1111101110010100
1001000000
111011011
1111110011010111
1111011110111110
100101111
10110111100
10001101100
1111111110111100
11110001010
100110011100
100111100001
101001001000
1111111111
10100011010
1111011101001000
1111100111000100
1111100100101001
1111010111100000
1111110101110000
1001101100
101000011110
100110000010
11100011011
110100010
1001100000
1111101110101010
1111101011011100
1111101010101101
1111111000001111
11010100111
11001100001
1011100010
1110001
101111011111
1000010101
1111100100111110
100011011111
1111111101111100
1111110100111011
101100001101
1111110000110000
1101001000
1111110001001001
1111101100001111
1111011011011100
1111100010100001
1111111110001100
1101111010
101011011000
110001111100
11100110000
1011110111
10001010110
11101101
11001101
1111111010111011
10000101000
100011000100
10111111000
1111101100
111010010
1011000110
1111110110010011
1001000111
100010100010
1111100011000111
110101111
101110010111
111011011
1111110110
1001010001
1111100011111110
1111101000001110
1111100100010111
1111111010010001
101001011001
1001000010001
110001001100
100101110101
1100110110
10101101101
1000000000
1001110111
10101110001
1100111
11101011111
10010110010
1110000000
1111101000011111
1111101110100000
11110100010
10000101111
1001101111
101111101
1111111110001001
1111111000001001
1111111010000010
1101011100
1111110101111101
1111101001110110
1111011110001101
1111010110000001
1111110101000011
10110111111
111011110000
110000111100
1011110001
111111000
111001100
1111111111101110
1111110111111010
1111111101100101
1111111110111010
1111111000011111
1111111011100011
1111010101110110
1111111110011001
1111101001011100
11001101111
10110011
1111100000010010
11100111000
101001010111
11100101100
10001110101
100110
1011000101
1111100110101001
1111011000000010
1111011001100100
1111100000000001
10001011
11011011000
100011111010
111111110
1111111100000011
1111101101100000
1111100100101000
1111100100011011
101001
1111111101010101
1111110000011001
1111110100110001
1111011010000011
1111100000101101
1111011001111110
11101000000
1111111111001000
110011110
1111110100111001
1000001
10110100001
110001000
100001011
1111101010110111
1111110000101101
1111100010111000
1111100100101110
1111101100011100
100101000
11111001011
110111011001
100010100011
1111111010000101
1111110111000011
1111110101011011
1111110000111101
1111110101000010
1111111000100011
1111110011001011
100011010
101001110
1001000101
1111111101000010
100000010010
1111111100001000
1111100111110001
1111110010000001
1011011100
111010
1100011101
1011100111
1111110100111100
1111101010010011
1111100011011011
1111101010001110
1111110001100000
111010111
110100000000
1000111101011
101000010000
11111010100
10011101000
110001100
1111111000100101
1101000
1111111100010100
1111100100111111
1111101101001101
10000000111
100010110010
100000010001
100001110001
1111100110011010
1111111101100010
1111111111110111
11011100010
10011010001
1111111010010111
1111110010100010
1111101011111000
1111100101100010
1111110010010101
1111100011010111
1111101011010000
111110111
10101011001
100010001010
11011111111
100101011000
11100
1111111010000101
1100101010
100000110
1111111010111011
1111011111100110
1111101001101011
1111011000110000
1100110001
110001000001
100100010100
1111111100010001
1000011010
1111001111001110
10111000010
10001011101
1111111101000010
1111111100001111
1111011101011101
1111101101010011
1111101101001010
1111110010000000
1111110001100110
1111111000110101
10000011
1111001011
110000100000
11111100010
1111101000
1011011111
10001111
10111011001
1111101010101100
1111111000001110
1111100001100001
1111010111111011
1111111011101110
10110110100
11111011110
11101000000
1010101011
1111100001011111
1000110011
10011011010
1111110101111101
1111101101111100
1111110100010101
1111100110010011
1111101101001101
1111100000000110
1111110111001000
1111111011010101
1000101101
1110100100
10100011111
11111111111
110000000101
100000110111
10100111
110011000
1111101100010101
1111111011100001
1111110111111000
1101000001
1111101011111000
111101111100
11010110111
100111010
1101001011
101101011
10101011001
11110101111
1111110101101001
1111111001010110
1111000001
1111111101001100
1111100110111000
1111110001100101
1111101011001110
1111101001001000
1111111101011011
101010111
10101111100
11001001000
111010101001
100110010001
1111111000110111
1111011101010010
1111100001101100
1111101011100101
1111010001111100
1111101101100011
1000000010
110101001111
11000010001
100010101001
11011011
10101110110
1111100110111111
101011011001
1111110111100001
10101111011
1111111111001110
1111111111101011
1111001010
1010
11100100
1111011100010001
1111010110110101
1111111000110100
1100011011
111010111101
111100110011
100000110001
1111110001101110
1111101110011011
1111101101100011
110101100
1111111100111111
1111111011011010
1111110000101101
1001000101
11010101001
1111111101111000
1111110011101101
10001100011
1111101110101100
110101111001
101000101101
10011011101
11101010
1101101011
11011000100
1101011110
10010101000
1111110110000110
1111011110011000
1111110000000011
110011001
101101101000
11110001101
1011000010
110010
1111010010
101110011
1111111001111110
1111100111010110
1111101101011100
1111111110111000
111000011101
1111111111101010
100010010
1111100000000001
111010
1111111111101010
10011000101
101111110110
1111000001
1111111000101110
110100101
1111111101001100
10000011110
1101000000
1111011101110011
1111101001000100
1111101100000111
1001000010
10011001100
1111111011010001
1111111111011011
1111111110001100
110011001
110010011
1111110111110010
1000011100
1011100010
1111111101100100
101100100110
1111110011001100
1111111001111110
1111111100100101
101010001101
1111111110100000
1111101001011101
100100101110
1111110111000100
1111110100111101
1111101010011011
1111110000100111
1111101011
100110110
1111110010011111
1111100100110011
1111110111100001
1111111011100011
1011011001
1111110110000001
1111110011011101
11100010
1111101000010010
101010100
1111101001110110
10100000001
1000001
1000100000
1111111101000011
10100010010
1111110110101001
1111111001101110
111101101010
1111110100110110
1111011001111111
1111110011001000
1111110110101010
1111111000100111
110011110
1111110101000110
1111000000
111101110
10011001010
1111110111101010
1111110011010100
1111110100000111
1111111011010010
1111111000010010
1111111011011100
1111111011111000
111101001
100110011
1111110110010110
1111110101010010
110010101110
11000101000
1111100000101010
1111110111
11111011
111111
100
1111100110010010
1111100001011001
1011110
1111111000111000
10000000111
1011011000
100001001111
1000011011
1000000011
1111111110010001
1111110011100010
1111111000011011
1111111000111001
1111101000110101
1111111000110111
101100010
10001110100
111101010
1111111110110010
11001001111
1000000000
111110010000
111111101
1111110001101011
1111111101101101
1111111110000110
10100110
100001011111
10001011
1010010010
11000101100
100000000001
111001100110
100010110110
11111010001
101010110001
101111
1111111111100110
1111111101010011
1111110100100101
111011001
1111111110000001
1100010111
1111111001110101
10011011000
10001011011
110110001001
11100011
100100100001
100100111110
1011000010
11011001100
1111111011110010
10011110
100100111
11000100110
1111101001111011
10000000000
1000101001100
101101000110
100101100000
110101101000
1011000010000
11110001010
11011010101
11000001111
11001111
111111010
1111011011101100
1111100010000111
1111011011111101
1111011101111000
1111111001101000
110101100011
1001011100110
110001010000
10011011111
11111110110
10110110001
1111111011101111
1111111111001101
1111111111011000
11000000
0
100100011
1111100000
111000010111
1010100010100
10000110000
111100011
100001001011
11001101111
11010100
1111111110110011
11100000010
1001111001100
100010101000
101100010000
10010100000
1111010101
11010110111
100110010011
101010001010
1111101001000011
100111010111
10010111
1111111011101001
1111111101000001
1111111100001000
1111111111101011
11100101
1111111011110111
1111111011100101
11111010
1100011010
1110100101
11101001011
100110000101
11111011001
11010010001
10101011100
100001000100
100110101000
1100011110001
1011101011101
1011011000011
1100101011011
1000000001010
101011110010
1111111000000000
1111111111010110
1111111000110010
10111100011
1111111011101000
1111111100011000
11000010
10011010
