101001000
1111111011010011
1111111100111110
1010010
1111111111011100
101000101
1001001
100111100
100101111
1111111110110011
100100100
101011010
1111111000010100
1111111110011111
10001101111
1000111100
1111111
11100011
1111111011010110
101001110
1111111101011101
1111111010100100
1111111101101111
1111111100001011
11010111
1011100
1111111100100111
1011111
1111111011000110
1111111110011110
1111111101100001
1111111101011011
1111111000100110
1111110101110001
1111110010010110
1111100011110010
1111100000011011
1110101110001110
1111000001000110
1110110110011101
1111101111000000
1111000110100000
1111101101101001
1010000110
10011011111
1111110100001000
1111011101110011
1111010111100110
1111010011001000
1111110001010111
10000010000
11010000110
1111111010101001
1111111101011100
100111100
1111111110101100
1111111011001100
10100111
100101101
1111110000011011
1111101001110110
1111110010110111
1001011110
1111001110101011
11010110111
111000001111
101000011101
10011011100
101001010100
101001101010
10011101100
1111100101010010
1111110111001100
1111100100110001
1111111001101100
1111101101101010
1111110100111001
1111111000110001
1111100101011101
11011100011
11011011011
100101011111
1111111100001110
1111111101001011
10000010
10100110
1110111111
1111111001111100
101111101
1111110011100100
1110111011001001
1111110111001000
101111110100
11010110000
10001110100
11001000010
10001100101
100000001100
10110011000
101110110
10000011111
1111111110011111
1111110001110010
1111100111110010
11010101
1111110110011011
1111100101110100
1111101000000010
110111
101010100
11001001011
1011100
1111111101111001
10000101011
11111000011
111100111100
11110010
1010011100
1111111111110110
110100000
1111100101
1000100100
10001101010
10100011101
1111110110010000
1111100001111111
1111111000011101
1100001100
1101010001
1111101111100010
1111110010011110
1111111110011001
1111100101111110
1111111100111010
11010011
1111100100101000
10100111
1111011111000010
1111100011100000
1111011100101001
1111111111000111
110010
1111110000001001
100110100
110001011
1111111000111111
1110001001
1111111001100101
1111110011100000
11011110
10011110011
1111110011110101
1111101011010000
1111101111001001
1111110110101100
1010111101
11110011011
1000010010
1111111010011111
1111110000100110
1111110111010101
1010111010
1111100110100011
1101110000
1111111001001110
1111010110000011
1111011100100100
1111100000010001
100111011
11001111001
10110001010
1111010001100000
1111011101100001
10110111011
1001110011
1111110110000000
1111100101101001
1111111110100101
1000011100
100001111
1111110011011100
1111111100010000
11000101
1011000110
10111010111
1101110
1111111011011000
1111110111010111
1111110010111111
1111101100100010
1111110000000110
1111110101101010
1111100000011000
1110101101100011
1111011001001001
1111011111001100
1111111001011011
111101111010
10001100111
1111001011110110
1111100010011001
1111111101100000
1111111111100000
1111111110100101
1101101100
10010010100
101001001
111011010
1100110000
10100011101
10010110000
11001110
100011110
1101101101
1111110111011011
10010101000
10101110010
1001010010
1111111010110101
10011000000
1111111001111000
1111001101011111
1111111100001010
1111100111101111
1111100000001010
1011110
1111111001101101
1111110010111111
11010011000
1110010101
11011000
1111111010011101
11001010101
10001011100
11010111001
100000100100
100111010100
10100101011
10101011010
1011110011
1111110011101101
11110110
1001011100
111100
1011010101
1111111100111001
1111111011100101
10011101011
1111101001001111
1111010110011100
1111100000010001
100100011
1000100100
111110001
100101010011
1100101010
101001110001
11100111000
100100011000
1011111000
100101000100
100100010101
11101000100
101000001101
100001001101
1111111100011000
101
1100100100
1010010101
1101001001
1101000000
1111111001001011
100100111
1111111100101001
1111111011000011
11110001000
1111101110000010
1111100001100011
1111101111000000
11110001110
1111100101
1101000
1110010110
1111110001110100
11010110011
1111010111
100111011001
1001000101
10100010111
10001000010
1111110110110111
1111100001110111
1111000111100110
1110110101101010
1111010110010110
1111110011100101
10010111100
1011101000
1001000010
1111110100011110
10101011
1111111100101001
100011111
1001111111
1111011011111101
100101100111
1101100010
101000001001
100101001
1111111000011010
1111011010110110
1111001110100000
1111011111011111
1111010010100000
1111100010100010
1111101000000110
1110111111101101
1110001011101000
1101111000000001
1110001000011111
1110000111111011
1110011110011111
1111001011111010
1111110000101011
1111111000100000
1111111011100110
1111111110000010
1111110100100001
11110001
1111001
11101100
101011011
1111101111111101
100011001
1111100001110100
10000100101
11000010
1111110100011100
1111011010001110
1110101101100000
1110010011000100
1110000010001110
1101101101010101
1101011101110000
1100101110000010
1100101110011000
1110001101011000
1110010001011010
1111000011000110
1111101000001110
1111111100110010
1111111110100001
1111111100111001
1111110001111111
1000001011
100100011
1111111001001101
101011110
1111111011100010
1111011110111110
1111101100111010
111101011100
1111110000110110
101011101
1111101101010111
1111100100111001
1111100101110100
1110011010111011
1101010001110000
1101010000001001
1101101011100111
1101110101110111
1110111001001101
1111011011111010
1111110100100110
1111110001111100
11011111
11010111110
111100000
1111101100100001
1111111000001010
1111110101111100
1111111100011111
110010
1111101111010010
111110110
1111101000110001
1111111110010111
100101100
11000010001
101100010011
10110100101
1111110110010011
1111100110101011
1111100001000001
1110101110100101
1111011010011101
1111001001011011
1111011100101100
0
1100001001
100000000111
10011001000
11000101000
11100110010
1101110010
11001001010
1111111111001101
1111110010011110
1111111010011001
110111101
10000100001
1001001001
100001101000
11110110
1111100001000111
1111111101100010
100011
101101001010
10001111100
1111111000110100
10001101
1111110101000010
1111101000101111
11100011011
100101100010
11010110100
11111000011
100000100011
10000001100
10110110100
10110011001
11111001
101001000
1111111100110111
11011
1111110111111100
111100
1001001001
11110010
1111111001011011
110100000
1111100100000010
1111111101111001
10100100111
11001011110
1000000000000
100101110010
1000100011
110111010101
11001010000
10111010111
1101110100
11011111001
101010001000
11001011010
10000001100
111001011
1111110
1111111111011101
10001000111
10010110001
10010100
1111111110100011
100100111
101001111
1111111100010111
10010000011
100001100
1100101
10001100100
11011110000
100101011011
111110011110
1001111001110
101100001010
1111101
11101100100
10100001011
10110010
10101000101
11001101110
10100110001
1010011000
10010001001
11000110010
1111111100111001
1111111001001010
100110010
110010100
1100000
10101111
1111111110110001
10000111011
1011010001
1111111111100011
1111111100100000
1111110101101101
1110111000
1111110100100001
1111101000111001
10001101100
100111011010
101000011011
10111101001
100000000100
11110000
10111010110
1111111101101000
10100011010
101011001
1111110000000011
110000
10011110
10010100
1111110100100010
11110011
1111110101001101
1111101100101111
1111110101010100
1000111011
1110011010
10011010000
101111010
10001110011
1111101000000001
1111111010101000
1111101000010001
11110001001
10000001000
1111100101100101
100001001001
1111100110001011
1111100100001110
1111110111110000
11000111
11000100101
1111111100101101
1111111010100001
10001000100
1111111010101001
10001110
1111110110010010
1111101101010101
1111110010010110
1111110110000101
101001
1111111101100110
10111010
1011011
100101001
11010010000
110011001
1111101010110001
1010100000
1111110001001110
110000010
110110100001
1101101111
1111101000010011
1111111010110011
1111101010001001
1111101011100000
1010101110
10110001100
1111110110010110
111000100
1001111101
100101000
10111111
1111110010010101
1111110111010010
1111110011010001
1111101111011001
100010
1111110010110100
1111101100100010
1111100111011000
10000100111
1011110111
1111111110001010
1111111000110100
1001010
1111111100011100
1111111111101110
1111111110011110
100100001110
1111101000011110
1111100111111011
111001100100
11110100101
1011011101
1111110110100110
1111111110001011
110101011
1111111001111111
1111111100110100
1111111011100000
1111111110001000
1111110000100000
1111111100000110
1111111001110011
111110
1111111010011010
1111101011100110
1111101011000011
1111111110100010
1111111010000100
1111110101110001
1111110101110110
10011110011
1111111011111111
100001111000
101010000010
10110101100
11000101111
1111101011100011
1111110010000011
100000110111
1111100111100111
10000111100
1001101110
10000110011
1111111100000100
1111111011001001
1111111111010110
1111001001
1111111111001010
1111110011111110
1111100110011100
1111110010100011
1001000
1100110110
111101001
1111110101000011
1111111110001101
1111111011000000
11001110011
100001100
1111011100010001
1111110101011110
11010110111
1011111100
11101111001
100110111
11001000
100000000100
1111010000101011
10100011
10010111100
111100001
111011001
1111111001010110
1000000101
1111110111100111
1011010
1111110011101000
1111110110000010
1111110100101110
1111111100010001
1111111100101101
1111101001100111
1111010011111001
1111110101001010
1111101011011001
1111110110000110
1111110110010011
1111010000010100
1111101010001011
1001111011
10010111010
1111111011111010
11111101
1111111011111111
1111111011111100
10110111100
1111111001011100
1111101011001000
1100
110010000
1111111001001111
1111111011000011
1111111010101011
100101001
1111110001100101
1111101110010101
1111100110011010
1111100110011000
1111010100110011
1111010011101111
1110111101011000
1111010010010000
1111101001110000
1111011101001101
1111011000101110
1111000100010010
1111001111110110
1111110001101100
10000111
11011001
1001011
1111111101101110
1111101000100100
11100101
10111110011
1111101101011010
1111101101010011
1111111100110011
1111111111000100
10110101010
101001000
1100101011
11001111010
1111100101111101
1111100000001110
1111110111111001
1111011011111000
1111000111010110
11000111
1111111110011100
1111111110011101
1110111010001110
1110111111011110
1111000100001011
1111100110100100
1111110101000111
1101110011
10001
1111111100101010
1001010
100110
1111101100100100
1111011001010010
1111011011000101
1111101011011111
1111101101110101
1111010111
1111111011000101
1101001110
10101011010
1010100101
11000000101
101001011001
11010001101
100011010
1111111001100111
111101111
1111111110000010
1111101001010101
1110111000001010
1111010111100000
1111100001100001
1111111100110001
11011100101
1111111110011000
101011010
11001110
1111111010101111
1111111110110100
1111111110111000
10011100010
11000111000
11111000
1000011011
1100011001
11001010100
110101000010
110000110000
100001010011
11000010110
100101110000
1000100001110
1110010000110
1000101010000
100000110001
1111010011011101
1111010101011110
1111001000000110
1111011111101011
1001001011
0
1000100
1111111100101001
100101111
