100000010
101011011
100100
1101110
1111111100000001
1111111111110011
10011000
1111111111001110
1111000
1111111111101000
100111011
10100010
1111101101010011
1111110001100001
1111111110111000
1111111001000101
1111111011011101
10100101
111010
11110010
1000100
1111111101001000
1111111110111100
100100
101010111
10010111
1111111011100010
101001110
1111111100000110
11111000
1111111011110000
1001110
1111111000010111
1111100101100011
1111001001001000
1110110110111100
1110111010110010
1110010000111010
1110011101100110
1101010111110101
1110010100100111
1101111101010001
1011101111
1111111100110100
1111111010001101
1110101101001001
1101111011000101
1110011011101111
1110110010101000
1111000010011100
1111011001001100
1111011101100000
1111111100100010
101001001
11001011
100001101
1111111100011001
1
1111111001111001
1111100000100001
1111001110010111
1111101011010100
1110101010111100
1110100000111000
1101110101101011
1110010010011111
1111001110101110
1111000000011111
1110100110000011
1110100110010111
1110101110001110
1110110000010010
1110001010100011
1110001001100000
1110011010001111
1011100101101111
1100101100110001
1110100010000000
1110010100000100
1110111110011101
1111010010000110
1111011011110000
1111111101110111
11001100
1111111110110000
1000011
11101000000
1111101001110101
1011000111
1110101110110101
1110111111001011
1111011000010101
1111011001000001
1110011010101101
1110010001111010
1110001010011111
1110010110111000
1110001111111101
1110101011100000
1110101011111000
1110110001001101
1111001010010100
1111110100000011
1110111111
100000100100
1111101110010000
1111101110111100
1111101000100111
1111101100100100
10011000011
10100110111
100010010
1111111011001001
1111111100001101
10101110000
1101100111
1111100011011101
1111110011000010
1111001011110101
1111000011100000
1110100101100000
1101111001000010
1101101011000101
1110001111001000
1110100110100000
1110110101101101
1111010001101011
1111001100100111
1111010011101111
1111010000101001
1111010011100011
1111111000100010
1111111100001011
100110010011
100111100100
11001111111
11101110001
1111101101111010
11110011000
11111100
1111111100110110
1100110
1111110001011101
1111010010
1000110001
111100000000
1111111010010010
1010100111
1111110101111010
1111100000001101
1111000001011011
1111011000101000
1111110111111001
1111101010100011
1111011100001000
1111011001010000
1111100001111000
1111101000011111
1111101011001011
1111111000001000
1111110001011100
100100001
1111110111110101
1101010
1111110001110010
110000010
1111011111000101
1111101000101000
1111111101101110
1111111001001000
1111111011100101
1111101001000000
111111101
11110100100
101100110
1000000110
10101
101001010
10110100001
1111111001000010
1111111101100001
1111111010110011
111010010
1111111100110000
10110001
110101001
11011
1010111011
1111110000001101
1000101111
1111111001100110
1111011100101110
1111011111010011
1111110011110110
1111011000011011
1111110001101100
1000111001
11010010110
100000000011
10010100010
1111101111100011
1111101110000110
1111111101111101
1111110011010111
1100110
1010101010
1101101
1111111111001010
1110101100
111100011
1111000110
10001000111
11100101011
1101111111
111110001
1010111
110100110
1100001110
1111111111100000
1111111100001111
1111011110100001
1111001010110011
1111100000010010
1111011010011100
1111011111110110
1111010100
100110110100
1111111100100000
1111101101011100
1111011100110000
1010011
101010
10100110100
1111111110100001
1111110001101100
1111111000100111
10001
101001000
100001110101
100001101101
10100101001
1001000011
111001110
1111111001101110
1001101111
11111100
1111101010111010
1110011011
1111111001011010
1111011101101111
1111000111100010
1111101101101001
11000110000
101100010010
1111101010111110
10101000010
11110001
1111110011001100
1001111110
1111110111001101
1111111010011100
1101001111
1111100110011110
1111101001011110
11111111
10010111110
11001010011
100011111000
11110101011
10011110011
1111111110000010
1100010111
1110101111
101001110
10101000110
1111111011010111
10101101011
1111011110000111
1111111011000001
11101001011
10110111001
11110110011
11011011
1111111110010101
1111101001111010
1111110100000010
1111111110110010
1111110111110001
1111101001010011
1001101010
1111110000101001
10000110
1111010
1111111011111101
1011010010
11011010001
11010001001
1100011100
1111111111111011
1111011111
1001100101
10000
1000000010
1111100111111101
10110100
10001110
1111100100000001
11100011100
100011000101
101001000100
100001110111
11100000100
11111111
1111111000010011
1111111011011010
111000100
1111101101110010
10001100111
1010111001
11001001
1111110111000011
1111110000110101
1000110111
1111101101
111110001
10001011001
101111001
1011100110
1100111111
11010100
11101101111
100101010011
1011110010
1111101100101101
1111100000111110
11111100111
11010010000
10111100101
10101001000
1111110100011001
10100000111
10001001100
101110100
10001101101
1111011
1001000111
1111111001011100
1111011110011100
1110111011011100
1111000110010110
1111100110101101
1111010101
11100110010
10010010100
1110110111
1111111111101100
1111110010111010
1111111000010111
10001100010
11101010101
1111110101001001
1111101111010011
1010100000
10111011001
1111100000000100
1111101110100100
101110100110
1100000
1010100000
100011110001
101111011
1111111101100110
1111111101110010
1111111100100100
1111111011100111
1111011010000101
1111000010011101
1111001011110011
1111100111011011
1111110101111100
1000110100
1111001010
1111000001
1111111011101000
1111111001110000
10111100
1001101011
1001011000
11001010100
10111111100
1111110110111111
1111101101000110
1111110101100110
1111111000010111
11111011111
10001000110
101110111
11110011010
1100111000
1110100110
1111110101010111
10010101111
1111111011001101
1111010100010010
1111000000011111
1110111011111111
1111011101111000
1111111011110000
1111111101110000
110010100
101001101001
1111011000
1110001000
10100010001
110010
10001
1100000101
1111110110011110
1111110010111111
10101011
10111010100
1111101111111110
1111100001001001
1111111111001110
111010101
101000101010
10100110010
11100101000
101000110111
11011010001
1111110011010100
1111011011100001
1110111100100101
1110111101000000
1111100101000011
1111101111010101
1111110000001101
10111101000
100010000101
1111111101000110
111101110
10001010000
10101110
1111110101000111
1111101101001000
1111100001000101
11111011010
1111110101011111
11100011101
10101111001
1111111110101100
1111101001010100
11111001011
10101011110
100110000100
100001111011
111111001110
110100010101
11000111111
1111110001101001
1111101010110010
1111110011011100
1111110111101001
1111101010000110
1001010101
1011101010
10101100101
100000110001
11000000001
100010010110
11101111
1010100
1111011000010011
1110110100001110
1111011010110110
1111111100101101
1111111011011011
11110011110
1011101110
10001110
1110011101
1111111111011110
100
11000010010
101100110100
101111010100
110001010110
100111011110
101011101110
100000101100
10101000010
10011101000
10111000011
1001100011
10111001010
1001111010
1000100101
10011010
1111111101000101
1111111101000101
1111110001000000
10110001011
1001011101
101100111
11110000110
1111010011
10011101110
101011100
1111101100001010
1111100000111110
1111100111111100
1111110101111100
1111110101000101
101000011
110100011010
110101011000
101101101111
101101011011
101001010100
1101100111
110100110
1111111100100011
1101001001
1110001010
1001000010
111010000
1111101001011010
1111100100100111
1110111001110110
1111100110010011
10010110111
1001001110
1111101111100101
1010101101
1111111001000111
1111011010010011
1111110111100000
1111011110101100
1111100100000111
1111101001101001
1111111001100001
1111110101001000
1111110101110001
10000111001
101101011100
101001011010
11111010001
1111101101000111
1111100110111000
1111100010011000
1111011100111010
1111101000111101
11001101
1111110011010000
1111001101101010
1111010000100000
1111011000101011
1111011101101110
1111011110110001
1111110011110001
10101010
1111100000100101
1111011010100000
1110111111000000
1110000110000001
1110111011111001
1111001101010101
1111010110111110
1111100010000001
1111101011110000
1111011011001001
1111110010101000
1111110011010101
1001010001
1000100010
1111011100100101
1111100110111111
1111001000110000
1110101110110111
1111001111011110
1111010011011101
1111010011111101
1111011011011000
1111101100011000
1111110001111111
1110111010011111
1111001111111011
1111111111100100
1111111011111110
1111111001101101
1111011100111000
1110110101110100
1110111011101010
1111001010010010
1111010100001100
1111011100101001
1110111101101001
1111001110111010
1111010111001100
1111011100011001
1111011010000000
1111011010000001
1111101011110011
1111101101000011
1111101011010010
1111010010010011
1111010110001111
1111110101111000
1111110010000111
10110111
1111101010101110
1111000111011100
110000110
1111010001110011
1111001000100101
101101110
11000101
1111111000101101
1111110001000010
1111100010011111
11001010
1111101010010010
1111110101111100
1111110001000111
1111010100011011
1111111000110011
1111110011000100
1111011100000111
1111010101001011
1111011000101111
1111110100000011
1111101110010010
1111111001101100
1111111011010011
1111110000110001
1111111010110100
100111001
1111101111001100
1111110011001101
1111111100011100
1111111011001111
1111111111011001
1111110000111110
101010101
10010101
10011111
1111111111111111
1111100000000011
100000011110
1111101110000110
1000010100
1111101110010110
1111101101010101
100101001
1111100101110100
1111011001011011
1111010001011101
1111010101111011
1111011000101101
1111010100000110
1111011111001101
1111100111010001
1111101011110101
1111100110100110
1111010101010011
1111111110100110
1111101100101100
1111101001100010
10111010110
1111111101100001
1010011011
1111111100110101
1111111100110110
1111111010111110
11000101001
110000100
100111101111
11101100000
100110001
1111110100110111
1111101111100111
1111011111001101
1111011110101100
1111100011111111
1111010011101011
1111011101111111
1111001001011101
1111000010100000
1111000000011110
1111011100010001
1111100000101000
1111101100001001
1111110111000001
1111100100111001
1110111000100001
1111101100001000
1111101110101000
1111011101011101
10110110011
1111111100101001
100111
1111111011111001
1111011110011100
101111001001
10110011010
1111111110001101
1111101101011110
1111111011111001
1111101111110100
1001110
1111100111011100
1111111000010110
100111010
1111110011001101
1111100101101110
1111011000111001
1111100111110101
1111100010110100
11010001
10100010001
11001100
1111111100101100
1111100111101001
1111011010100100
1111110000111111
1111101111111011
1111111010100111
1111111100110111
100011
1111111010100001
101010111
10101111
1111011110111001
11101010101
100010011111
1111111110001011
10010001
10000101
1111101110010000
10110000
1111111100100110
11011110110
11100101101
10011010
1111110010111000
1111111000111101
10100001001
1010110011
1101100101
10101100
1111111100101111
110001011101
10111001111
10000001111
101001111
11001
1101100
1111111101101010
1111111111010101
1111101
10101001101
100000001100
10011000000
110001011001
1011010100
10111011111
100100000101
1111111101010010
1100111000
100000110111
110100110111
1110101101
1111101100000101
100001110000
11111001010
11110001010
10011110111
10101001000
11011110111
100010001100
1111111111010100
1111111100001010
10101101
10000010
