1101001
10110010
1010
10100011
11001011
110
1110110
1111111101000100
1111111111111001
101010101
10101111
1111111011110111
1000001
1111111111110010
11010100
1111111100101001
1111111111101010
10010
1111111110111100
1111111110001001
11100111
1111111011100000
1111111011001001
1111111011011010
1101110
100111011
1111111011101010
11000001
1100000
11100101
101011010
1111111010100111
1111111110111100
1111100101110101
1111000101111110
1110111111010000
1111001011101010
1110111001111000
1111000111010110
1110100111110010
1110100100001000
1110101101001100
1111110010000110
1111001100011011
1111001110001000
1111010010011010
1111001000101011
1111010010111111
1111001010010111
1111010011111100
1111010011000110
1111011110000100
101000001
1111111010101000
1111111011111101
1111111111101000
1111111010101000
1111111110000011
1111111101011111
1111100000101101
1111011001100011
1111100011011110
1110110101101011
1110101001101011
1110011000011010
1110011101001000
1110000011100111
1101011111011001
1101100111001001
1101100000111111
1101101111010011
1101111011101110
1110110000111001
1111101011111010
1111100011000011
1110100101100001
1110110010101101
1111000111010111
1111010100101100
1111001000100001
1111001011100000
1111011101011110
1111111111011000
100011
10011
1111000
1111111101100101
1111011010101011
1111010111011010
1111010110100001
1110110100010100
1110010010011111
1101111111010000
1110001101110010
1110101011110101
1110101001010111
1101100001011110
1101001101000000
1100100001100101
1101011001011100
1110011101111100
1111101101101000
1111110111111110
1000001001
1111101110001100
1111110011011010
1111111110110100
1111101001010100
1111011100101111
1111011101000011
1111110100100100
11111001
1111111100111011
100100100
1111110000111100
1111100101010101
1000110100
1111111011100001
1111010111100010
1111100101000010
1111111010111001
1110110100000101
1110011110110111
1110101001001111
1110010000111110
1110010011101011
1101111111111100
1101101101100111
1110011101110001
1111000000000001
1111010010100110
1111111000100111
1000101
100000001101
100010001111
1111101110110000
1111111010001000
1111110101001100
1111101111111011
11011110011
1101110
1111111011101000
1111110010001110
1111110110110111
1111111100010111
101010100010
1111111111111011
1111111001000101
100000100110
111110111
1111100010010011
1111100000110110
1111011000000001
1111011001111010
1111100000100100
1111100110000110
1111000111110111
1111100100111001
1000110
1111111010001011
100101
1111111001001010
110001010
1111111010011011
101001001
11001101000
1111010110000111
1111100110111011
1111111100110000
1111111111110101
1011011000
101011111010
11000100111
100000100111
10001110010
11001111000
1101000
10010010110
1111110001010001
1111100000100100
1111100110100101
1111110011100001
1111111000111111
1111100110101001
1111111111010101
11101110000
11110101110
1101111100
1011100101
10111011011
100001010
1101000001
1101101011
1111111010
1111011101101011
1111011001011000
1111111110101010
100110000001
100010000101
111100000100
10101000001
1111101010101010
1111111111100100
1011000001
10010100001
100000011
1111111100001001
1111110001010011
1111101000111110
1111111000100010
1111101001111000
1111100100001100
1111111010111101
10100110011
1111101011
11110011111
10100000110
1111110000101010
1111111100101011
100011100
111000101
1111101111001110
11000111011
1111001111100000
1111011110100011
100000111110
110110001101
10101110111
100001110111
1000101111
1111111110111001
110111100
1111010101
10011101110
10110000100
1111111101011100
1111100101000100
1111101100101111
1111101011001111
1111100011001101
1111101011011010
111001000
11110010100
1000101101
1011100011
1111001111
1111011101011111
1111111001001101
1001101001
101100110
1111101100010101
1111111101010110
10010110111
101011010011
1001111111
10111101010
10100110111
101011011
1111111101100110
10000111111
1011011
10101011011
10011111010
1111111000110000
1111101111111100
1111101010100100
1111100100010001
1111011100010000
1111110100100000
100100101001
100101000110
1111111100011100
1111111100110010
11010001
1111110011100001
1111111010100000
1111011000001101
1111010010000010
1111011110110111
1111101010011110
10011000100
100001100000
1011101000
11010110111
101001001
10111100
101101111
10011111000
10000000011
100011101010
1100101101
1111110110101110
1111110111111000
1111001100111011
1111000110000010
1111100110001011
10010110011
11001010110
100001111100
11100
1111111111101100
1100000101
1111110010110010
1111111111100000
1111100000011111
10110001011
1110101010001001
1111101001110111
11100011000
1111100011100001
111001100101
11101001011
1001001
1101010001
11001001
100100010000
10011011100
10110101111
10011110010
1010101111
1111111110110111
1110111101110001
1111000100111101
1111111110101110
11111000010
11111001101
10101010010
1111110110100101
10111
10010111
1110011111
1010110101
1111000010000100
1111100101010110
1111010001010111
1111110000110110
1100000011
101010011011
101001001111
1111110111101001
1010000011
1000001110
1010001001
1011110101
1000110110
10000010100
11001111011
1111111001001111
1111100101111111
1110110111011000
1110110111000001
1011001001
11001111100
11101110010
100111110100
1010011011
1111011111100001
1111111001000010
10011011000
1000111001
1111000100100110
1111000001111010
1111110100111101
1111110101000110
1111101110110101
1111111110101001
1111111110110111
1111111111
10110010110
1111010011
1000011110
11001011010
10011000
10101101010
11110111110
11100100
1111010011111111
1110110101100011
1111000001010110
1111111100011101
1001101
11001010100
101011001001
1100001
1110011
10100100100
1100101111
1111100010101111
1111001110000100
1111011001011101
1111011010010001
1111011100000010
1111101101011001
11110011110
1111100011111110
111010101011
100111001000
10000011011
1111111011101001
11011011000
1010100111
11110000001
110010110
1111110110111000
1111011000001100
1111010010001101
1111001111110000
1111101110011000
10011011100
100111101101
11110110001
1100001100
10011011101
1111110000
11001000000
10001010110
1111011100110001
1111010001101000
1111001011001111
1111011011111110
1010101001
1111010
1111011100000001
11111010
1101111001
1111111100110110
10001010010
10110101101
10001010010
11010011101
100100001
1111110000101110
1111010011111010
1110111100110110
1111010100101010
1111111010011010
11010101000
110000100010
11111011011
10110001001
100101011110
10000011110
110110000100
11000110001
1111010011011100
1111011010101000
1001011011
11010101000
11011110101
1111111001011001
1111101001111011
1111110100110001
10100110100
1111110001110111
10111111100
100110111001
11001111101
1111111111001111
1111110100001100
1111100101110111
1111011110100001
1111001111100000
1111011100100010
11010011
101001110101
111111110110
111000110011
11110011010
11010000101
1111110010
10101000101
10000011111
1111111001110000
1111001111011010
1111001010010001
1111100011101010
1111111010111110
1111111111101010
100001101
1111111000100110
101110111
10000001
10101000010
100101110100
10011000110
1111111010010101
1111111111111100
1111101000000011
1111010101110000
1111011111001100
1111101101001111
1100010110
100101011000
100101100110
100100110000
1111111010011011
1111111000011111
111010010
1111111110100010
1111110101101100
1111100001001000
1111100011110000
1111001000100110
1111011100010110
110011000000
110010
11111000010
100000101
1111110000111010
1101000010
10101000011
1010111100
1111100110100011
1111100110110011
1111001110100100
1111001110110010
1111000110110100
1111011100001111
1000110110
1110111000
1011110110
1111100010101000
1111100001110110
1111110111111101
1111010011100010
1111101010001100
1111011110011010
1111010001000001
1111001001001110
1111100011111101
1111111101001100
1111111111011101
1111111010010011
1111110010010011
10101101001
11000001101
1111111101100101
1111110001111010
110011
1111101011110110
1111101001001100
1111000010110001
1110110010110110
1111001001111000
1111000001111111
1111101101011110
10010010110
1111111011110101
1111101010111000
1111011001110010
1111101101100011
1111101100111100
1111010011001001
1110111011110011
1110010110100010
1110100101101010
1111110101101101
1000000010
1100000
1111101111100010
1111111111010110
1111100100110111
10001000101
110010111
1111101000101111
1111001010000110
1111011001101001
1110111101100111
1110101000101100
1110100101011000
1111000000001100
1111001101110101
1111100100000000
1111110101100111
1111111010011001
1111101110010000
100110000
1100000
1111101000110101
1111011000001000
1111011100001001
1111001101010010
1111010111110011
1111001001011101
10100101101
1111111001111000
1111011010001111
1111111000010011
1111110111110110
1111110011101010
1111100110100011
1111000111011010
1111110001000011
1111011001100101
1101101000011000
1110000000001100
1111101010110111
1111010101100110
1111100100001010
1111101100000010
1111111010000110
1111111001010011
1111111001101010
1111111011100010
10000000100
110000111
1111011110001001
1111100111001100
1011000010
1110001101
1111101111001000
1111100011011101
11001100111
1111110011001001
1111011001100001
1111111001101011
1111111111100010
1111110111010101
1111110110011010
1111001101011111
1111000110111101
1110101001001001
1110101010100010
1111000101001000
1111111101011001
1111110011100101
10111100
1111101000101010
1111111010110000
1111110110011001
100111101
1111110001101010
1111100011
1010110
1111101101011110
100011
111010101
1111101001011101
1111101111001010
1111101010111001
10101100011
1111110011111011
1111011011101110
1111111110000100
1111111100111110
1111111101011000
1111101000111000
1111101011100100
1111000111110000
1111010011101001
1111101010111011
1111111010111111
11010100
1111111001010010
1111110101111111
1111100101100001
1111101001100110
1111110001000011
1111110111011000
1111111100101010
1100101011
1111111110011000
1110
1111111111001100
1111011110001001
1111101111111011
1111100110111111
1111110011000100
1010000
1000000010
1111100011111101
110000
1111111100101111
1111111010101100
10001111010
1111111010110000
1111110011010110
110110110
1111101010011001
1111110110100001
1111111011101111
1111111110110001
100101001
1111101101011111
1111100010010010
1111100101100010
1111011000000100
1111110011110011
110100001
101011001
1111110100100000
1111110001111101
1000
1111011110101010
1111000111111010
1010001111
1111101011011000
100010010010
11111101
1001110
1111111111011000
101010000
100000001010
1111100001010101
1111101010001111
1111100010001110
1111101011011010
1111010100001010
1111101000000100
1111110010110000
1111111111001000
1111101111001000
1111101000100101
1111011110011000
1111111110001110
1111110010011110
1111110010000010
1111110001111010
1111110110100001
1111110001101111
1111101110000111
1111111100110111
1111101110110010
1111010001100001
1111101011000000
11000000110
1111111110011010
1010000
101010
1100000
1111111100011011
1011110000
101011010101
10111001001
101011111111
10111011001
11011010100
1101111100
10101100
10000010101
1011110010
1011000101
101100001100
11001010
1011000000
11011100011
100111101
1111011011000010
1111100011111011
100101101
1111011010110101
1111101100000101
10011111011
11001000011
1111111101011110
10110001
1111111101110011
10100101
1111111101101101
101010110
10010101001
100010010001
10110010111
100000101001
100111111001
111001111010
1011110100
1010101
1111010001
11000110010
1101100100101
1101101010101
1001101111110
111011111111
110011001101
10111111000
1000111110
1010011011
1010010000
100111111101
1111111110011100
11001010
100111110
1111111110010111
