10100000
1111111011000000
1100000
1111111110101110
1111111111100000
1111111101001011
1111111101111101
1111001
101011110
1111111100110111
100110111
101
1111110100011000
1111111011101010
1111111111001011
1111111011011001
100111
1111111100000011
1111111010101010
1111111011010101
1111111111110001
10100110
10011111
1110100
1111111110000011
1111111110100111
10001110
110010
1111111110011110
1111111101100000
1111111101000101
1111111101010111
1100100
1111110101010011
1111011010101111
1111001110011110
1111011011100001
1111001001010111
1111001110111110
1110111011010011
1110101100010011
1111101001110000
100010010111
100110001
1110100
1111101000101010
1111000011010111
1111000001101011
1111001100100010
1111010001111111
1111100010110011
1111011111100010
1111111111111101
1111111100111110
11010001
1111111110000100
11001001
1111111011111100
1111111100010001
1111100100010110
1111100011000010
1111100110001110
1111011100101010
1111000110100011
1110101101101111
1111000100110110
1110100110100011
1101111111100101
1101101000111001
1101101100001111
1110001011101110
1110011000111000
1110110110111101
1111110111111111
10101110
1111111011110111
1111111111
1101111110100101
1110101010101101
1111010100111110
1111101010011101
1111100111011010
1111111101010101
1111111110111101
1001001
1111111101011110
10101010010
1111010000101010
1111110000110110
1111110100111100
1111110010011010
1111101110000000
1111101001110010
1110111110101111
1110110010101101
1110110001111011
1110111001100101
1110110110110010
1111000110111100
1111101001111100
1111101010010101
1111111001111010
100000110101
10100000000
10101011010
1101001001
1111111100011110
1111110000100100
1111101101111110
1111110111100011
1111110010111011
1111111011110100
1111111011000110
1101101000
100001101001
111000101
1111110100001001
1111101100100101
100100010001
1111101011100001
10000111001
1111101001011000
1111100001010010
1111110110001110
1111101011100000
1111101000011111
1111110000010011
1111100110101011
1111101110101010
10010100001
10100111110
1111111001010101
1111011000010000
1111101101001011
1111111011110001
1111111101001111
1111111101
100011101101
110100111000
111101111
1101
1111111011011010
1111110000001100
1111101011000000
1111110000100001
1111111111010101
111011
11101101110
10100000100
10101001010
1111111101010100
1001111111
1111111111000010
1111100110010011
1111101111011100
1111010010110101
1111110011110000
1111111000101011
1111101011001010
1111100010101111
1111111000101010
1111110101011101
1011111100
1111110001010001
1111110
101010100001
1000001110
1111110111110111
101010101
1110010001
1111111010101001
1111011011100011
1111101011100110
11110111011
1111110001010100
1001001011
100110000010
101110101101
11100111011
10111101011
1111011010
1011100000
1001111
1111111010110011
1000001110
1000001010
1111110110000111
1111110010101110
1111110010011000
1111101101000010
1111101110011001
1111110011110100
1111111000
10000100010
100011111001
1111111010001011
1111111100100111
11011000111
10001111000
10000110111
100100000011
10101111101
1111111010011100
1111110110001001
10000011001
11111000001
10010111001
1100001101
11101001
1111110101111111
1111100110100100
110101100
100001110000
11111010000
11111011011
1111111111010010
1111111010110100
1111110111001110
1111101100000010
1111110101010011
1000100
100011010011
10001001
1111101100110111
1111011100100101
100011100
10000100101
1111111100111001
1011110110
100000101110
10010011001
1111110011000100
100010100
1110011001
101000000
10100101010
1001001011
10000110
11010101
11101100011
101111111000
11111100111
11110111000
111001111
1111111111010010
1111110000000000
1111111001010000
110110110
101111100110
1000011001000
1111111011001000
11010100111
11110001000
101010010000
1111111100001001
10000110011
1111111010111110
11000010110
100011100010
11001000001
1000010011
1011110001
111101011
1100110111
10100110111
101001010
1111110001010000
1111111001110000
10001001111
11001110111
1111101011111001
1111101011111111
1111111000000100
110000100
100111011111
110111000100
10111101100
110111000110
11101011000
101110101001
10111100101
10101111101
111110001
1111101011000111
10011011010
1111110110000101
110110011
100010101011
1000101010
1011010111
11110101010
1100000111
10101100
1111111101101100
1111101100000101
1111101101011001
1111110001001110
1111101011100100
110100001
1111111101011101
101000111
11000101110
101010001010
10011011000
11010011110
1111111010011010
1110000110
1111111110100000
11010111010
1111011100011000
1111100000110000
100011000
1100001100
1111111000101101
110111
11001110100
11010101010
100101110000
11010011010
10001110100
100011101
1101111111
1111111110100110
1111110100101110
1111110101101001
1111111001010100
1111111111010001
1111100100000100
11001010
110101110
10001101101
10010101111
11001111010
10111101
1001111101111
1111101001
10011101
1111111110
10000100111
1111110110111000
1111101011111100
1100111001
10011100110
11101010101
1100100110
1110110101
11011001101
111100001
11101000101
10100101101
10101000
1111111101100100
1111111000101110
1111110110101101
1111110100000111
1111110101000011
1111111111001110
11101000000
111011000
101000101010
10000010110
111000110
1000111010
11000011101
1111100110010111
1111110110100010
10001101100
1111111011000100
1111110110000000
10101010001
10110010000
10100010100
11110010001
100000011001
10001110101
101011111000
110011001111
100111100011
1111111010111111
1111101101001010
1111111110111011
1111111001011000
101011010
1111111111011100
10001010110
100000001010
1011010101
1101101000
11101010
1100011110
1111111011001000
1111101101010010
1111110000000010
10000011001
111011101
1111110011110101
1111011010011101
1111111101001100
1001110111
1100100001
11110001111
10110000000
100110001000
101111101100
100111110111
11001001001
11100011000
1011110110
10111110
1100001101
1111110111100111
10111001111
1111110101101110
101100100
1111110111010001
1011011100
1111110010110000
1111011011110011
1111011111001100
1111011010001101
1111110011010001
10111100001
111111
1111111111001010
1111001000110111
1111011101101110
1111100101100101
100001000
10000010000
10000100111
101011001100
111000011001
110101011111
11001111000
100001101011
11000111100
1100000000
1100000100
101111110
1111100011001111
1111100100101001
1111111101001010
10011100000
1111111110010010
1111110111111001
1111101111110011
1111100000000000
1111111010001001
10100011100
10100000
11010011011
1111111001110001
1111010001110000
1111011101110010
1111001110100000
1111100111110010
101111
1001111110
100001111
110000110
100100100101
10100011011
10010101011
1110100011
1001001110
110100000
1111100101111101
1111011001101111
1111101000001101
1111111111110101
1111111000000011
1111100011101101
1111110000110110
1111101101100100
1110100111100111
11111010
10111
1011001101
10000011011
1111100110011001
1111000001011100
1111001011110100
1111010111000010
1111011001111000
1111100001010001
1111110010001111
1111011101110011
1111001110011101
1111100111001010
1111110010111000
1111111110110000
1111111101000100
1111110001100110
1111101000100010
1111101000010011
1111101010101000
1111100000010110
1111111010110010
1100110
1111111101111011
11110001
1111111111001011
1111111101011111
1111110111110101
100100011101
10101000011
101110011100
1111100001100000
1111010011111111
1111011011111011
1111110011100000
1111110111001010
1111010100000011
1111001100011111
1111001000100000
1111010101100011
1111000011110001
1111001011110011
1111010001010000
1111011101110111
1111100101111010
1111100110101100
1111011101101101
1111110010100101
1111101100101010
1111111011101001
1111100011000000
1111101101111010
1111010001110110
1111101000111110
100111000111
1111110010000011
1111101011111010
10010110000
1000100001010
1111111010001110
1111110010110101
1111101110001001
1110101001
1111101100110111
1111010000010111
1111010100100111
1111011101100000
1111001000011010
1111000000110000
1110111000010100
1111010011011010
1111110000000110
100100000
1111101110110111
1111101100111010
1111111101110110
1111101100110010
1111110100001001
1111100110100100
1111101110100110
1111011001011000
1111010010111100
1111011010110000
1111100101000100
1111111111001000
1111101000000111
110100111000
1000
1111110101001110
1111100100101101
1111111101000101
1111110011111101
1111111011110010
1111011101000100
1111011111100110
1111100000011101
1111001100110010
1111011101010000
1111101011011101
10100000111
1111110110011000
10000110
1111101000010001
1111101001000001
1111110001111110
1111101100111011
1111110010000000
1111110010000010
1111101011100110
1111011100011011
1111101000010110
1111111100010010
1111110000011010
100001110101
100110011101
1111111001110110
1110100010
10010010000
1101111001
10110110011
1111001111
1111101100100001
1111101000011011
1111101111001011
1111101100111101
1111100000011000
1111110010000011
1111111000110011
1111111111101101
1111101000101000
1111101111110111
1111101000010110
1111111011110110
1111111101011000
1111101100010100
1111100101111111
1111101110001000
1111110000000000
1111010111001001
1101001010
1111101111000000
1111110111111011
1111111100001011
10111001001
10010010101
11011000001
10010010001
11001001000
10011001110
1111110011010011
1111101011001101
1111011101101110
1111100001111110
1111101111010101
1111111011001100
1111110111000110
1111101000100000
1111110101101001
11010001
10001011010
11100001101
1011
1111110101110011
1111011111110101
1111101001110001
10010010000
1111010100100111
1001111001
1111111100001000
1111111100000011
100000010001
11111001100
1100011011
1111111000100010
10011111111
1011100000
101000011
1110111001
11111100
1111111011000111
1010011
1111110111000011
100010011
10001100011
10010100000
1010111110
11010011100
100001110111
1101011
10011111011
1111110100010100
1111101001010100
1111101010000010
1111101010010001
1111011000010100
101001010
1101111
1100011
100011110100
11101111011
110010010101
110001111000
1101000111
1011010001
1111011001
11101101111
101000010011
100111010000
11001110000
111100101001
111100110110
1000101100011
1000011111111
101010000010
100011001011
10100010000
1111110111110000
1111011011001000
1111101100000000
1101100111
10011100011
1111000011001101
101001110
1111111111000100
1111111100111111
1010101
1111011110111001
111010101100
1000000111011
110001011011
1001101100111
110111110010
110110000101
1111110001101
10001111101100
1101110110111
1111111011011
10000001000100
10110101001101
1101000001001
110101101100
110100001111
110101110000
110101101101
11100011
110010001
100000111000
10110001001
11000001000
1111110011100010
1111111000110011
1111111011111000
11001111
100111000
1111111110110011
1111111001110000
1111010001001010
1000011
10111011001
1001010110011
1110010100111
1010000001011
1011000101011
1001110010011
1000011100110
1011001101000
1010011010001
11101011000
1110101101
11111010001
110011001011
11111010110
1111101101101111
1111101101000101
100001
1010111000
110011100
10010001001
1111111011011100
1111111100111001
1111111101111010
100001001
11000001
1111111011101011
10001111110
100000011001
1111001000
10100100001
100001110101
100010110011
1000000111000
111011111101
1011110
11101010011
10101011110
1111111110001001
111101111100
1011001101000
101011101000
1111110010111110
1111010000100010
1111101001110111
1111111110010001
100110101110
100011010
1111111101001011
1001110
11001011
