10110100
100011011
100000110
1111111111101111
1111111101111101
1111111110111101
1111111011010111
1111111111010100
110110
1111111100011000
1010101
11110110
1111111010010011
1111111010000110
1111110110111101
1111111101011010
1110110
1111111011011000
1111111100111000
1111111110101010
11101000
100000
1111111110100010
101001111
101000001
100111001
1111111110100010
11011100
10010010
100100000
1111111101011111
1111111110101011
1111111110101001
11011
1111110001101001
1111110011101111
1111111100110000
1111110100101000
1111101110000011
1111101000110101
1111110100110011
1101000111
111111000110
100001011011
1111100101001110
1110110111001000
1111010111101100
1111101000100010
1111010001100101
1111011110000010
1111011010101000
1111100101110111
1111111100011011
1111111101001001
1111111101111111
1111111110001011
1010111
1011
1111111110110011
1111111111111111
1111110110101010
1111111000010000
1111100100101111
1111101001000001
1111010010101001
1110111111101000
1111001111101100
1111100100100111
1110111100111100
1110110100010101
1111010001101001
1111111010001101
1010100101
11110010
1111101111001001
111110011
101000011
1111101010100111
1111111111011110
1111011111010100
1111001101001101
1111011001011111
11010000
1101011
10111
1000000
110100101
1111110011101100
1111001000
1111110110101100
10110011010
10111111000
1111100000011110
1111111101110110
1111110100111100
1111100001111010
1111011010010101
1111101010001000
1111110110000000
11010111000
1111111111110100
1111111111110001
100001001
1111011101110100
1111100100001110
1111101
1101010110
100110100010
10001010101
11110010001
1111100101110111
11110011
10110
1111110101111010
1000111
1111111100101011
1111001111100111
1111011110000100
1111000011001011
1111000010011111
1111011111101010
1111111001001010
1111101111110111
1111100111111110
1111111111001100
1011011000
10011011100
100000110
1111110001101001
10111101
100011001
1111110010101100
1111100101
100000100100
1010100011
100000101101
1110101010
1111111100000011
10010100
1111100
11001
1111111010110110
11011011011
1111110010011101
1110111100010000
1100100
1111101101000101
1111111000111001
100101110
1111111100011110
1111011100011100
100001000
10111011010
11110110011
100011011110
11010010011
11010101100
10101101001
11111101
100000001
111000111
10010100011
1111111111100000
1111100101011101
1111101110000110
1111111100100100
1111110110110110
100001111
1111111110010010
1111100111111001
1111101001101111
1111101010000011
1111111011101110
100011011000
1111110000001001
1111101000010010
1100011
1111101110010011
1111111111100111
1111111100110001
1001111101
100011011011
101010010001
10111001101
1011100001
1111111101001101
1111111011001101
101110010
10110011010
10001111111
1111011
1111110000
10111111
11011100001
1111101101101110
1111011000111010
111000011
1111011110010010
101100000
1010111010
1111111110101010
1111110011001101
1111101111000010
1111100100000001
1111011010001000
100111000
10001111110
10000111011
10010001110
111000111
1111100110001100
1111110110100011
1111101110110111
1111110100011010
1111111011111000
1111111010011110
1111111010000101
111011011
1100111100
1111110010
1111110010
1111111011101000
1111001110111001
1111011000111001
1111110100111010
1111011011000110
100101111000
100100
1111100010000001
11111100
10010111000
1101101110
1111111101110100
1000001001
10011011000
101111011001
100000101001
1111101011
1111101001110100
1111100010110111
1111100100011011
1111011110000111
1111110010010101
1101100
1101101010
111000101
11010100000
11110001110
1010101001
10010
1111110110001011
101000011100
1101010011
10010000
1111011101100001
1111100110110011
1111101011111101
1111101001100011
1111111100101100
1111111010011111
1111110001011001
1110100110
1011100110
11111011000
101101111101
101001101100
10001110111
1111110110111000
1111100010011010
1111011010011000
1111110111100010
1111111001001000
1111111000011110
101010000
101000111
1111110110110110
1100111010
110101000
11101101000
100000110
10000010100
10011001010
1111100010001001
1111010011100001
1111011001010101
1111010001000000
1110101000000001
1111010011010100
1111000001011100
1111100111011010
1010
1110010110
10101011010
11010100100
100001100110
110011110
1111110110100011
1111101110000000
1111110101010000
1111111111011000
1111001100
1011101011
10001110111
100001001010
110110100111
1111100101110011
1111110110101011
1111110001010111
11111
1111111110110001
1111111101001111
1111010101010010
1111010010010101
1110111110110001
1110100001011111
1110011011010110
1110100110011100
1111100101000011
1111011001000000
1111011000100101
1111101111111011
1111111011101110
11000011000
10001101101
11000000110
1011001110
10
1111111110011110
1011001010
1011010000
10110101011
10101101100
100111101101
1111111011010001
100011100110
1111111011010000
10000100
1100100101
1111111110010001
1111010001101001
1111011010011111
1111000111001110
1110100100101000
1110001100011101
1110011101110001
1110111001100010
1111001011000100
1111010100000011
1111100011000001
1111111110001111
110101011
10001000001
10010101000
10100101010
1111111000000110
1111111101011001
11010000101
1111111100010000
11010100101
11110100010
10001101
1111101111001011
10111
1110011000
1110000000
1010111100
1111111000111011
1011000111
1111100100100111
1111101001000000
1110101101101000
1101011111101011
1110001100101100
1110111100000100
1110111010001001
1111100010001011
1111111010111100
1010110101
11001010101
101000111011
10110000000
1111111101111001
1111110110100111
10001100001
101101110000
1111111111001000
1101101111
1111101100010010
1111110001010111
10100000011
1111100011111111
11111111
1101110110
1111100000010111
11011100
10000101010
1111001101100110
1111110010110000
1111000010101110
1101110010011010
1110100110010111
1111000110010111
1111101000100100
1111101011000100
1111110111101110
1110010100
10111110000
11110000011
1011100111
1111101010011001
1111011100000000
1111111011110111
110111111
1111110100011110
1111011000111001
1111011001010100
1111100100100010
10111011001
1110011100
1111101100000000
1100101110
1111100111011110
1111100001011011
1111110011
1111011000100100
1111111010101111
1111101111111001
1111100000111100
1111110011000101
1111101111100000
1111111000000100
1111101001010011
1111110001011001
1111111111010000
10100110101
1010011111
1111110111100110
1111010011111111
1111101001001000
1111100101111111
1111101111001100
1111110100011110
1100000001
1111000011011111
1111010111000000
1111110111011110
1111011100011110
1111111001010010
1111111100110101
1111001010110111
1111000010110111
1111110100110100
1111010101100010
1001110111
101110000
1111110111101010
1011011111
10
1111111011000101
1111111001000001
1111111001110100
1111110111000000
10101010010
101101010
1111011100000100
1111001110010011
1111100011111101
1111101010111010
1111100101000110
1111110111010100
1111011010001000
1111010000010100
1111011011011111
1111111100000101
1110111001101000
1111011101111111
1110000
1111001011011000
1110011101110110
0
1111101111101011
1011001
1111101111100011
1001011000
10011001100
110010101
1111111001001110
1111111010101101
1111110010
10001
10101110
1111110011010011
1111010111001101
1111010101101001
1111100110001000
1111100001001000
1111110100110100
1111111110100101
1111100101001111
1111010010111101
1111110100011100
1101010111
1111010000011111
1111011000001011
10110001011
1111010111001000
1111011000111001
1111011011000000
1111011110100111
1111110011101101
1111111001001010
1110110111
1111111111101010
110110111
100101000
1010110001
100101
1111100001011000
1111110001110001
1111100101001110
1111100110111011
1111110111111010
1111110001110010
1111111110010111
1111110011101000
1111111110110001
1111101101111001
1111100010001010
1111100000100010
10111000001
10000100011
1111101101110001
1111111010010011
1111111111000011
101110110010
1111101100011001
1111101001100010
100100100
1111111110101000
101000010
100000011
1010101
1100101000
1011001
1111110010110010
1111010001101001
1111100001110110
1111101000111011
1111110110001010
11110010
1111111100110110
11111111
110000000
111101111
1111000001
1111101010101100
1111010000110111
110111100
100000111
10001111011
1111111110101000
11001000
1001010101
1111110110010001
1111101010000111
100011111
1111111100001011
10011001
1010000111
1111111000110000
110100011
1111110010001101
1111110011111101
1111110001010111
1111101101111000
1111110011111101
1111100111110000
1111110101100010
1111111100101011
1111000110
1111111110011000
1111101111000111
1000100000
1111010011100101
1111000110011111
1111100111001111
1111111000101110
1111001110
110100010
1111011001101110
1111000111000010
1111101111010010
1111111000101100
1111111001010101
10000101111
1111110101111000
101101001
1111111111111010
1010011010
111010111
10000111
111010111
1111110010110011
1111100111011110
1111101111110100
1111111010101101
100000001
100010010
1111110000010010
1111111000100010
11100001010
1111011010110000
1111100000111111
1110101011
1000001
1111110001100001
1001101001
1111110110011101
1111010100001001
1111111011010101
1111101101001110
1000000010
1111111100000101
1111111100111001
1111111100000011
1010011011
1010011001
1010011101
1000101111
1001110000
1111111100100011
1111011011100110
1111101101100111
1111110011100001
1111111100001010
1111100101100001
1111111000101101
1111000110001010
1111011101101100
1111100101101100
1111111001011010
100011110110
1111100011011001
1111101010110000
100001011
1111111010101011
1110101011100110
1111111100101011
1111100101000101
1111111011010111
1111101000000101
1111110000001101
1111101100110001
1111101110110111
1111111011010001
1111111010111011
1110011110
10101000000
101010000
1111110110110111
1111111111010010
1111011000000111
1111010100101000
1111110000011000
1111101001110001
1111110010001000
1111010000100101
1111100100100101
1111111111101000
11010000
1111011101110111
1111111101111101
11001101
100111010
1111111101100111
1111000011011011
1110110011110101
1111110111111000
1111100011111111
1111100000011111
1111011111000011
1111110001010110
1111110010100011
1111110001011011
1111111111100101
1010011101
110111
10010010010
100010
1110110110111110
1111010000000101
1111010000010011
1111100010110000
10011110
1111111101011111
1111111001110010
1111110111110101
101011000
1100000111
100111011
1111111101011111
100010100
1111110110110000
11000111001
1110110111011010
1111100101100010
1111011010100001
1111011101000111
1111101110101000
1111110110100101
1101010001
11001011000
1111101001100011
101011
1000000111
1111101100010010
1111001010000001
1110111110100100
1111001010110000
1111001011110100
1111100100010101
1111110100110000
1111111000001000
1111111111010100
10110001110
1000011
100000110
1111111011001111
11110
1000100
1111111111101101
1111110100001010
1111111110101010
1111110000101011
11111011
1111111001010001
1101000010
11100100110
111000010
100110001010
110110110
1111110110100100
1111110011010111
1111101001111111
1111101010100000
1111100001011010
1111101110010001
10000111010
1111110110001111
10010010
1111110111100101
10001010110
1111111110011101
1011110010
1111111010110111
1111111100011001
1111111110000010
1111111100000001
11000111
1111111101101101
1111110011101101
1111110101101100
1111111110100010
1101000100
11011110110
101110011111
100000010
1111110100111001
10001100111
11111101001
101101000000
11010001101
1010010000
100101110100
11001101110
10111101100
10001011111
1010010
11010001
1111111111010100
1011001
10010101
1111111111110101
100100111
