10001011
10000011
101011001
10010
100111
11001010
11000101
1111111011111101
100010111
1010000
1111111110100001
1111111011011110
1111111101110001
1111111010001110
1111111010000100
1111111101011001
1111111100000010
1111111111000011
10101010
1111111111011000
1111111010110100
1111000
1111111010111100
1111111011101100
100110110
1111111101000001
1111111111111010
10100001
100010000
111010
1111111010101011
1111111101010101
1111111100110101
101101111
1111110110111000
1111111101111110
1111111100011011
1
1111111110001011
1111111000100100
1111100010110010
1111100001110100
1111001111000010
1111001101001100
1111001101100111
1111110010111111
1100111
1011110001
100001101
1111101111110011
1111101100101111
1111101011011100
1111111100110001
1111111111000110
11000110
10100010
1111111011001110
1111111111010001
0
10011010
1111110111101110
100010010
111000010
1111101010010001
100001001000
110001110111
100010011000
10011110010
10001011110
1111011011010000
1110101101001001
1110101010111110
1110011110001001
1111110100110001
11000000000
101001101
10011101001
10100110100
1001010100
11110011001
1010111110
10100100101
1111111101010110
1001101
1111111010101011
1111111101110000
1111101001000100
1111100100001010
1111111010110010
100011101001
100100100011
1111111001010011
111111100101
111010000100
100110111001
101010011010
101101101
1111011001011111
100110000
1111111010010101
1111101000100100
10000011010
1001011101
10010000
11000010
100111110001
1111101011000000
1111100100000100
1111111110101110
1111111011100100
1111110111001010
1111111010110110
1111111111001110
1111111010010010
1111100000111011
1111110011101100
1111101101001011
1000010001110
101110010101
1000111000
1111111110101011
10011110000
1111111110000100
10101110101
110010001100
11111110111
1010111100
10110000
1111110011111101
1111111011
1101110010
1111111001000011
1111110010111010
1010111100
111101110
1111111001010101
1010000001
100101011101
100110011100
11110101101
10111010
1111111010101001
1111011010010011
1111011010100100
1111010110110000
1111101001111000
1111101001010101
1111111101101010
100100011011
110000110110
100011101001
100100111111
110110110010
100101001011
101001110101
1111111100100111
1100010
1100100011
11110010001
1011000010
10001000001
1111111001001100
1111110100100000
1111011011
1111111000011001
10010010000
11011011000
100100111100
101011001
1010001100
101100000101
10110010011
1111011101110001
111001000111
1110110110
11010010101
100110100101
110101111000
11010010101
1111111110011110
10111000110
11110011000
100011001010
100011000111
10111011100
10100000111
10001001110
1000011011
10111001000
111111001
1111111111100101
1111111001110110
1111111111000100
111001011101
101100011011
10000101010
11000000
10011111101
100100001101
11000110111
1010111
1000000001001
110101011110
11011000100
110010001111
10010010000
10101000111
11111000
1111110000011100
11111000001
1010100100
11101111001
100001011011
101011000010
100010100101
111011111
1100101110
100110011
1101010100
1111100011000111
1011110001
111101011100
100100110110
10010100010
1111110001001111
11010001101
100010111011
1111100011110100
1111111110011100
11111011011
1111111011001111
101100010
100000111011
1111111101010100
1111100101001000
10110011010
100000111
1111110000
1111110010110011
11101001
101011101110
101010111010
10111111100
1010111110
1110110111
100101110
1111111101110010
1111110001100011
111110010100
1100101010100
110010111010
1111111101111010
11010001
1110110010
100010110111
1111110110010010
11100101111
11000110111
1110010100
11011011110
101010011011
111011101
1111110000110101
1111111101000001
10000011010
1111111100111000
1111100110111111
1111101001001010
10010110010
110100010111
100110011100
101000100101
100000011011
1111111101111111
1111111010001001
100111011
1110010010
1001110011100
1111101101000101
1111101110000110
1111111011110011
1111111100101011
100001011000
101101001010
1101000110
1000100011
1010000110100
101011001000
11001001010
1101010101
10110111
10010010
10010110011
1111111001110101
1111001110100001
1111001111011100
1111111101001011
11010000101
11110001101
100010001100
100000110011
1101000101
1111101000011110
11111100010
111110011110
1001010010
1111110111011100
1111010110100011
101100
1111010011110000
1011100000
1111111001000101
1111101000001001
1111111000010000
110100100010
11010100010
10000010000
101101000
1110
100110101101
11011100001
1111101100110101
1111000100010111
1111001110100011
1111111010000110
10010001010
11001001001
11110100010
10110100101
1101001110
1111100110111010
1111000101
11001111001
11010110011
1101110
1111100100101100
10111001
1111011001
100011010
1111011100000100
1111110010110110
100101001101
11100000001
110111010100
100101110110
11110001010
110000111000
110100011001
111010001
1111100001101010
1110101100010001
1111001101101100
1111110001011100
11010011
101000000010
110011101011
1110001011
10111100
1111110111100001
11111000111
11111110110
1110001001
10111000100
10010100
1111110010111110
10111010010
100101010
1111001111100111
1111101101111010
111111100
101001
1100010110
110010100101
1010101111000
1100001010100
100100101101
1111110010110110
1111011000101110
1110111101101011
1111011011000100
1111101101110100
1111110110001100
100011100111
111010111101
101100010101
11110011010
10011001011
100100
1111111010110011
1111110111110111
1111101011
1101000011
11110101
10000100100
1111101001010100
1110110001000111
1111101100000011
1100100011
1011101
1101001111
101000101110
1010001011100
101010000011
1100000110
1111101111000101
1111000010010011
1110110110101110
1111011010010110
1111010111011000
101001010
100000101100
11101010011
100011111100
110010010
1111101111010000
1010010001
1111111110100011
1111011010010001
1111110101110101
11001011011
110100000
1111111110011100
1111011001100000
1111010110010101
111101001
1001011101000
1010001111
1111101010101100
10111000
101011000101
11010011101
1111011101111010
1111100011101011
1110111010000011
1111000011010000
1111110001000100
1111100001100101
11010100000
110100110010
1001001010110
111010110001
101100010111
11010000
11110000000
10111001
1111011100110111
1111110110100111
100100000100
10101100
1111100100010011
1111011100100000
10011111
11101011110
101111011100
1000010011
10011010110
1111111000111101
10000001
1111111011111001
1111111011010000
10101010
1111001011010100
1111000001101110
1111101010100011
100101111
111110010111
1001111111000
11110101011
100110010
10110000000
100011111111
1000011111100
10111100100
11100010000
1111101100010100
100001101010
101000001
1111010011011001
110001110
100110111101
101010000
11001110110
10001110111
1110100100
110100010
10001010101
1111111101011001
111101010
1111010
1111001010010011
1110111011010011
10011001
111011100011
1010011111111
1010000010101
10110100
1111110011101110
101010101001
1100101110
111011010111
1001111000101
1111111010
111111
11100100111
1111100101101011
1111110011100001
101101011011
100011100100
101001110101
1000111111101
1000001110101
11101001010
1111111101010101
1111110101010000
10001101001
11011011011
111101010
1111010110111011
1111011011101100
10101101011
1000010111111
100011100101
10111110010
1100
1111011010101100
1111111001011111
1111111011000010
11011000001
10010100001111
1111111001101010
1111101100001001
1111011110100011
1111100110111110
1111011100011001
1111011000011010
1111111110011100
101010111011
1010110000001
11011011000
1111111000110001
10000011
100000111
11100110000
11010001000
1111111110011011
1111011111000000
1111111100011000
1001101100
1100010000
1110010000
10110100011
1111111010110011
1111111001111111
11101101011
100011001111
10000001110
111001000
1111101110100111
1111101011010000
1111011100110101
1111111101100111
1111101000011111
1111101000101001
111110000
1111100111001110
1010001010
1111111110010101
111000110
1111101110001110
1111111111111011
1111111100001101
1111111001110011
1111110001010110
1111111100101001
1111110111110001
110010011
1111101100011011
1111100011100111
1111110001110000
1111100101000110
1111110101011110
1111110111100100
1111110100111100
110101110001
1111111111001100
11011000
1111110010010000
1111101011111011
1111100110100111
1000100010
1111101000100011
1111111010101010
1111111001110001
1111101110110000
11011111
10110101111
10111110110
100000101
1111110010000110
111011100
1100110001
100100101
1111110001010011
1111101111100110
1111110110101000
10101001
1111110100101101
1111011100111001
1111110101000101
1111011101000101
11111110
100011110101
1111101111100111
10010011110
111010
1111111100001010
1111100110011001
1111101111101011
1111111100110011
1001100000
1011111010
1111011011101001
1111101111010011
10101001010
1100100110
1111111010011000
11111111010
100100101101
100011011001
111101010
1111110100001111
1000001110
1111010100
1011101
1111100011010110
1111100001100110
1111100010110001
1111111001011101
100111000011
1110001111
1010101101011
1111101011100011
1111011010111101
1111111100010101
1111111110100000
100001101
100011100111
11011111000
1100010111
1111101000101101
1111110010110111
10110110
1111110100100110
100010011
11110000101
1101001001
1100000110
10010001000
110110001110
1110001111
1111110111011101
1111110000001000
1111110111110100
1111111111100100
1111100000001101
10010011001
100011011001
101111011101
111101111
1111101011010011
1111010011000010
100000000
1111111100000110
1111111110101101
1000010101
100000000110
11000111010
10101001101
1110110010
101001011
1011010101
10011111111
111101000
11101111
11010111100
110000101110
101100110010
111111010110
1001010000001
11110100011
101110011
111000111
1111111010001000
1111110101010011
1010100111
1111101010001010
100111110110
1111110111101101
1111011101110110
1111111010110011
1111111110100111
11001000
100101
1111101010011110
1011000110
100111110
10010000011
1111101000101001
10000001011
111111011100
1001110000000
1000010010111
1010101010010
1000100111110
1011010010001
10011100000100
1011110000101
110101111110
10011011111
101111100000
11001100011
10000010100
1111110011010100
10111001110
11001100101
1011000001
1011100001
1111111011001000
10111110
110
110100
1111110011111111
1111101101011110
1111111101010001
1001000101
10011101010
1111111000010100
11110000111
101011101000
111000111010
1000000100010
1000011001101
111111110110
111100011010
1000100010101
101100000111
101001100000
101001010001
1111101001000011
1111011010010100
1111110110010001
1111101101111100
1111111001101111
1111111110011010
1111111111011001
1111111101110010
11010110
100110110
1111111011100110
1000111
1001010110
1001011101
1100111
1111110110111111
1111101101000000
1111110010001111
101011000
1111111111000100
100000010111
1001000011
1110111111100001
1111111001100000
1111111011011111
1111000101
10110110000
1111101100100010
1111100011111101
1111111001011110
1111111111100011
11001100
110101
10011101
1111111100100011
1111111100101010
