1111111011110111
101010010
1000000
101011100
100010100
100100100
11001100
1111111110101111
1111111011000110
111101
11010011
1111111111100101
1010100000
10001110101
1010001011
10000011
1001111
10110001
1111111011001110
1111111111011110
1001100
1111111010111011
10110000
1111111011010110
10111100
10111
10
1111111100101101
11100110
101
1111111100011000
1111100
1111110111011111
1111110111001000
10111011101
1111101001
100100101111
1000010001111
110100101010
101110110100
100101100001
11100101111
100
101001001110
11011011010
11100100
10100101100
1111110011100111
11000110000
101001111001
101100001001
100110101010
111101
1111111100011011
1111111100011001
1111111101110000
11011011
1101
1111111100110001
11001101010
10101001010
1111000110100001
1111011010000000
1111101010011001
1111001101010101
1111011010000000
1111111000110001
11110100110
1101011001
100000111111
101001100001
100000110100
100001001100
1111111101000100
1001001101
10111010
1111111010010101
1111001011011011
1101011111
101001001011
11101000100
100110100111
11100110
1111111010110111
1111111100000000
1111111100010100
1111101000011010
10110101010
11100100111
1111011101001110
1111101010011100
100010001110
11111111100
100000100
10001110001
1111111101110111
10101000001
110100111001
110111011111
11000101111
10101100
100000
101011111
11110000101
101101011101
1111111110011100
1111100111010001
1000001110
100100011011
1110001110
10100100111
1111111010111010
11101000
110111011
1111110011001100
101000000011
1111011111111010
1111110010011100
1111100100101001
101010001
1111100001101110
1111110101011111
1111111001000001
1111110110110100
1111110110000001
100011
1111111000101111
110111001
1111111100110101
1111110111100011
110100100
111010011011
1011110010
1110100101
1000011110
1111111111000101
1111101100100011
1111100011001011
100100011
1111100100011001
1111111101001001
10100100
1111011111001100
1111110001110101
1111100010000001
1111100101111110
1111111100100000
1111100000101100
1111101001101000
1111111001011000
1111110100011101
1111111100111110
0
10001111111
1001001110
11111101
1111111011101011
110001
1000011111
11001101010
1111011011
11110011101
11001011011
1010100111
1101111101
11001100000
1111111000001000
1111100111000010
1111111111010000
1111111110100111
11100110111
1111110011101011
1111011100100110
1111111011101011
1111101011100110
1111110011101010
10000111
1111110001000001
110010000
1111110111
11111000011
10011010100
100110010
1111111100001111
1010010
1111110100010001
1111110100111111
1101001
1111111101110010
11100010110
11011010001
1111110011111101
11001101101
11110110100
1111100101000000
1111
1111111010101100
1101000101
1111110011001111
1111111100000100
1111100011100110
1111111100010001
1111100100010100
1111110111010100
10011110
11001100001
101000100101
11010110000
11010101011
1100111
1111111100101100
1011111110
11101101
101100
110010000
100010
1111101100100101
1111111000100100
10111110
1111110011
1111100110001110
1111111001011100
1111100000011110
1100100111
1111111110010011
1111101000111010
1111101101101101
10100111110
1011110110
1111110110101011
1111100001010011
11000111
1111110100001000
101111101
1010011101
1011001010
1011100101
1111110111001001
1111111100110101
1100101011
100000110001
100011111100
10100110011
101100011
1111111110001010
1111111001010001
1110101101
1110010010
1111101011000111
1111010101011001
1001100000
1111111001100001
111100
1111111111111110
1101110000
1101110000
1111111100100010
1111110001000010
1111101110001111
11110111
1100101111
1101011101
1111111100000111
101001011
1001011100
1111110101111010
110111100
11001000100
101000010110
10100111110
1001011001
1111111010100100
1111110110001110
1111110001100110
10011111
1011000101
1111111111101111
1010101001
10110110011
1111110101011000
1111111100011001
1111111101100101
110000110000
11010000000
1111111111111011
1111010101111000
1111110110110000
1111110011100001
1111110010
1100100101
11101001
1100101100
1100101
11010100011
1000001010100
1000100011000
11111011101
1111111110011010
1111101011001000
1111111100011110
1111110111110000
1111111111101111
1111111000010011
1010101110
1011101011
1111101100000110
1100101101
11011100100
101011011
10100110001
10010100011
100010100010
1101111011
1111100010101101
1111110010011000
1111111111110001
1111111100000111
1001000000
1111111100100100
100111101101
10100111101
111000011100
1000010111100
1000010110111
10011110100
1110110111
1111111100011101
1111101001110101
1111100010011001
1111110
1000011
1111110111110010
10100001100
1111101111100100
1011000000
11000010000
1110110000
100011001
1111110000110100
1010101111
1111101110101111
1111110100000001
101000011
1001011101
1111110001000001
1011011011
1000100101
101011111000
100110101110
100101111010
1000100010111
111110101011
10001000000
1000110111
1011111001
1111100001101001
1111101001011100
1111111000000100
1111110111011100
1111111100010001
1100000111
100100100101
101001001000
10111011100
101011000
1111110111101110
1001110
1100110101
1111110000011100
1101111
1111101011100011
1111111000010011
1111101101011000
1111111100001101
11100011011
100001000001
1110110000
11110111111
101111101011
101010010000
11101101101
1010100000
100011110
1111100011101101
1111111000000100
11000
10100101
1011110110
10000000000
1111110111000101
101101111
11010101
11101011110
101101100
10100100010
1111101011001100
1111011100101101
1111101101111000
1111100101110110
1111100000000101
1111100111100011
1111111110000110
10011101101
10001111110
1100001110
11010001101
11011110011
11111011000
1010010011
1111111110101111
1111101000110011
1111100011010001
1111011110100000
1011011000
11101111101
100011001110
11011111000
1111010010111010
1111111111110010
1111111000100001
1111000000
10011111100
1010111001
1111001110000101
1111111011011011
1111111011000111
1111101110000100
1111101010000010
1111101101111111
1111111101011101
100100001
1000000011
10101101110
11011101001
10111001000
10001001111
1111111000011010
1111011110100001
1111011010101101
1111101010110001
101000010
11001011000
1100001001
11101000000
11100000000
1111111000001011
1111110001110000
1111100111100110
1111101000111001
10011011110
1111011111011111
10111110
1111110110111100
1111110100000100
1111101111100011
1111111001100000
1111101000001011
1111110110110100
1001110
1111111111001110
1101000001
1100111110
1111000001
1111110011011010
1111010100011011
1111000111011010
1111011010001101
1111110001000100
1010000100
10001000110
100010
1111110001101110
1111101010011011
1111111001101111
1111111010110011
1000011
1111111100100110
11000011101
1111011100101101
1101101011
1111100010111000
1111110101101011
1111100011101000
1111110001101001
1111110010011010
10111001100
11011000011
10111010011
11100001111
1011011111
11111101
1111011101100111
1111011110001100
1111011101111000
1111010110011000
1111110111101001
1111100111001111
1111001101011110
1111100110001001
1111101100100010
1111101011111011
1111000010100011
1111010111001010
10000110001
110110001
1101111110
1011011
101100110
1111101010111110
1111110011001011
1111010111111111
1111101000011111
100011111
100001101001
101111010110
101110011110
10010010000
1111111111000101
1111110000100010
1111011011100100
1111001010001010
1111011001001100
1111011100101110
1111011011011000
1111100110011010
1111010101100001
1111101101000111
1111010010000001
1111101011001011
1111101101000001
1111011101000011
1111111110001000
1011110
100001110000
1101010011
1001110010
1111101100101100
1111101000000100
1111101110001010
1111101001100111
1111111000000101
10101111101
10100111110
10010100
1100110010
1111110100101000
1111100011010111
1111100000101010
1111001110101011
1111100101010100
1111100111110010
1111101011000000
1111110001100010
1111100011010111
1111100110101010
1111101101101101
1111111111100011
10000110000
1111000011000010
1111110000100101
1101001
10100011000
1111110011111000
1111111101110110
101000011
1111110001100001
1111111101110010
1111110111100100
1000001001
1010011001
10111000110
11001001110
11110100001
11010000011
1100000100
1111111011111010
1111111000001011
1111111101110101
1111111000101001
1111111000001000
111011000
10000011100
10101100100
1111111001001100
1111100100101000
1111101101001111
1111000101100101
1011100101
10001100
1111101001100100
10101001
1111011010
1011000
1111010000100101
1010000100
1011010011
1111110001011010
10110001011
100001101001
11100011001
10111011000
10100101000
10010110100
11100000100
111000000
1111110110011100
1000110000
1111111111100010
1001111011
110010010
10110110
1111101111101111
1010010
1111111000111011
10101100001
11100000
10010000
101010111
1111011110011000
1111100110001111
1111101100100110
100010101
1111100111001010
1111110101100111
1111101101100001
1111110011000000
1010010111
1111111000101100
1101101111
10001011010
11101001001
11110101100
1011011110
100101100101
101010110001
100000101000
1111111011100100
101010111
1111100001110101
11011
1111101000010100
11101010000
111011001
110010100
11101110
10011101
110001111011
10011110101
1011011000
1000010100
1111100000110010
10110100
1111110011001101
1111110011001100
1010101000
1111111100011001
1111110010
100100000111
11110110111
100011001100
101101111000
100010101011
100011000100
10011100001
1001001010
1111011111
1001
10001011111
1111001111
1111101111001101
1111110100111110
1111111011011101
101
1111111110011011
1111110100011011
1101010111
100001100101
1101010001
1111100110101011
1111100101011001
1111100000111011
1111101100010110
1111111001010000
1000100
1111001010
10011101011
111110001
1101011101
10110101110
11001100101
100100001011
11100101111
11110101011
10001000011
101111011
1111111100010101
100101111010
1111000011010100
1111111001011010
1111111011100100
1111111101001111
100001001
1111100000000101
1111100000100111
1111100101100101
101011111
1111010100010110
1111010110000100
1111011001100001
1111111110011011
1111110001110111
100010110
1111110011010001
1111101110100011
1111110110111110
1111111100010001
1111110111001101
1111111010111100
110101111
1100011011
1111111000000000
1111101000100011
101100000
100101110011
100010100010
1111100111101000
1111110101101110
1111111111100010
1110101
1000000
101011100
1111100010011011
1110111100101011
1111100111111010
1111011000010111
1111101011011001
1111110110111011
1111011111001101
1111010111111110
1111100100010001
1111011110001101
1111101001011011
11111010
10001101100
1111111111111101
1111110011110010
10100011011
10101001011
1111111110001010
1111010100101001
1001001
1000111011
1111111100001100
1000010010
1111111110101000
10010110
10110000
1111111010110100
1111111011000011
1111111110001110
10111000101
100010111100
1111110100110100
11001000
1111111110101010
1111111101000110
1111111110011010
1111100001101101
1111111001110111
100011111101
1111111001101100
1111110000101110
110100111
10001111101
100110111
1111011011010111
1111000101111111
1111001000001010
1111100111110111
1111110101010011
100010110
10111100
1111111100101110
1111111111010000
