1111111101001001
101000000
10101110
110010
10000011
101001000
11111011
11111000
1111111111001001
1111111011100111
100110110
1111111111110001
11101111
11111000110
11110001010
100111010
101001101
1111111010111011
1111111011001011
1111111101000111
1101111
1010
10000100
1111111110001001
1111111100000101
1111111110101010
1111111111100111
1111111011010000
10010010
1111111110101011
1111111010100101
1111111011100100
1111111011110011
11011111
10011111110
10111000101
1010001101
1001111111
101101110001
101100111110
1010000100
11010000
1111011011100001
1111111010111001
101000101010
110000110011
11011101011
1010000000
10101010110
10101110001
100000010111
11001010011
1011
11010011
1111111101111000
11111
1111111111110001
1111111101111101
101101101
11111100
1111111100011001
111110001
110011111101
1111111000010100
101000011000
101000001011
1010000000
1111000011
101000100101
1001000110000
110011100101
11111000111
1111001101
10000111110
100010010100
1111111100001101
1111110101111000
10111011000
1111111001100011
1101011101
101010110101
11000101001
1111111110001101
1111111110010100
1111111110101000
11111000
110101011
1111101100011011
1111100110100001
10110110100
110111000001
1111100101100110
11000111101
100110111011
1011100010
1111111101000000
1111111111111111
10010010001
1101110111
11000101
110110101
1111101111000010
1111100111101011
1111100101101000
1111101001011110
1111111110001100
10110110010
10010001110
1111100001000111
1111101011001010
1111101100111111
10111001
11101000
1111111101101100
110100000
1111100111101001
10001100000
100001011
10111011000
1111101111000001
1111101111111110
101110100
101100000
1111111010011111
1111110100100111
1111110101011011
1111110010101000
1111110100011000
1111110100011110
1111101100101111
1111110011110100
100101010
1111110111010001
1111110000110010
100110
1111101110110110
1111011101110110
1111010111
1111101110110111
1010101110
11011001
101001100
1111111001001110
101111111
1111110111001100
1111010001000001
1111010101010010
1111101111001011
1111110001100111
1111110110011111
11010100100
10111100100
1111110000010100
1111110001101011
1111110011101110
101010
100000111
111010011
101011
1111110011100001
1100101011
1111010010
10001001010
10000
1111110010011111
1101100110
1111111010101100
1101011011
1111111100011001
111101111
100110010
11000101010
1111110111010000
1111001011010001
1111110110110110
1111110001110100
11101100
10100000100
11100011110
10001100110
100011111
1111110010101111
1011110100
10110001111
100101101
1111111001110100
1111110001011001
1111111001111100
1111110000000001
1111111110110011
1101100101
1111111000110100
1111100101001010
1111011010110010
1111010011100110
1011011001
1111111101110010
1111110000000110
1111100101111101
111010101
1111111110100000
11110000101
11001101111
10110000111
1110110110
111110101
10110000010
11001011111
110111111
11000010010
1111001110
100010010
1111110110000011
1111101110010100
1111101100100000
1111110110010111
1111111100101110
10110101001
10011000111
1111100111110111
1111110110111010
1111001100010111
1111010000001011
10001110110
10000101010
10011101000
1111011111110011
1100011101
11000001100
1000011111
1111011111100000
1111111111000100
1111110111001010
1111110010110011
1111011111
11010100001
1010100101
101011010
1111111110010010
1111110010101010
11011010
10001110101
10001110
1000110
1110100110
1111110111110111
1111111001100000
1001010
1010000111
1111011100101111
1111011001111001
1111011001000000
1111111001111000
1111001110101110
101101101
1111101000001011
1111111011101101
101100110
1111011111111111
1111101100110111
1111110101011110
1011010001
10010110001
11101010101
1111111100111010
1111110100000101
1111011011011010
1111011011010111
1111110110001001
11010101000
10101100000
1111111010010010
1111110101011001
1111110011100011
110000101
11000101010
1111100010011101
1111010111011100
1111110000111010
1101100011
1111111010110100
1111010001000100
1111110011110101
1111101100001010
1111011100100101
1111100011010010
1010000011
111001
10000110100
101000100011
100010100011
10000111110
1111111010011101
1111010110110001
1110110011101111
1111001101101001
1111110100000101
11010001011
1110110011
1111110101011000
1111101010011110
1111111110101100
110000001
1111111110010110
1111111000011010
1101011001
10111111011
11001011010
1111101001101001
1111111001110011
1111010110011110
1111101111000110
1111111110110111
101001000100
11110001000
101011101
1111101111
1111111101010110
11111111
101001011
1111011101110010
1110100000100001
1110101001110011
1111001110100110
1111011101001110
1111110111101011
1111110110110111
11001010
1111110100011101
10100111111
100000000010
10101011011
1111101111111011
1111111111001111
1111001111011001
1111111101111010
1111110001100101
1111110000100000
1111010010100001
1111110111011000
1111111000110110
110001101
1011101
1111110100111010
1111100010111000
1111001010001111
1110101111100000
1110000111100000
1101101011100110
1110011111100011
1111001110011000
1111010111010111
1111011110111111
1111111101011001
1111111010010011
1111110011010010
1111110011101110
10111110010
1110110101
1111110101011100
10111100000
1111110100010010
1111010100110101
1111010100001101
1111110101010110
1010011111
1010110001
1111011101101110
1110101001010011
1110110101101110
1110100100011011
1110010001110000
1110010000101110
1110001010000110
1110010100110111
1110000100011000
1110111111101000
1111111001101000
1111101001111000
1111010111100001
1111100100101011
1111110111101111
1111101100111111
1111100110101000
1111101110101010
1111111111111011
100011100110
11001001000
11110100100
1111100100101011
1111110001110110
11101111100
1111111100011001
1111100100001000
1111011000111000
1110111100100100
1110000100110010
1110001010011111
1101111110110001
1110001100010101
1110001001111100
1110110100101011
1111101010111110
1111101011101101
1111111100000000
1111101110101000
1111010001111001
1111010100010010
1111010110010101
1111100010011010
1111110111100110
1111010001000100
1111101011101001
1111101100010011
1110100001
1111101100100101
11001010011
1001001010
10110011011
100011100000
1111111111111000
1111101000100101
1111011111001111
1111001101000101
1111110110101010
1111000111111110
1110110100101010
1111001110110010
1111101000110100
11100
11010101000
1111111100001111
1111110011101011
1111110111000111
1111100101111011
1111011011011010
1111101011010001
1111101001101000
1111100000011111
1111101001100100
1111110010100000
1111111100110111
1111101101110101
1001100110
101110110001
1100001010
1000010000101
101111011011
111100010
1111101110011011
1111110101111101
1111101101110110
1111011111111010
1111010100100101
1111100111011110
1111110011111111
11001110001
11101000001
11100001100
10011000111
10011101010
11000111000
1111111010011001
1111011100010100
1111100011011011
1111100010011011
1111100000001101
10111001
1111110000110001
1111110001011100
1111110001010100
1111101101001001
1111101111110010
1111011111001100
101001111110
101110101101
100110001
1111101010011001
10110111011
1111110111100000
1111110110000000
1111111100111111
1111111101110011
10011101
1110001011
11000001011
1111111101
1010000111
10111011010
10010001010
1111110000010010
1111001110110101
1111001101011111
1111100010110000
1111010101010100
1111101001101010
1111101100101001
1111001011101001
1111101111010001
1111101010010000
1111110011011010
1011001011
11101110011
110100011101
1111111100011000
1111111110111101
1111110010111000
1111100010010000
1111110110011010
1111101111111110
1100110110
1010000011
10001001000
10010010101
10101001101
10101000100
100111111000
1110011111
1111011110100000
1111000111000011
1111001111010111
1111001011001000
1111011011111111
1111010110100101
1111101011110011
1111011010010000
1111110001000001
1111110101010000
1111111010100001
100110001011
111001011110
101010111010
1111111100010110
1111101001011001
1111011100100110
1111100011100000
100000100
1111110011011011
1111111111111001
10000111001
100000100001
1101001001
10010010100
101010000011
111011100110
101100100100
1111101110110010
1111100110000100
1111111011010110
1111110000101101
1111100011000010
1111110000101101
1111101110111000
1111101110111011
1111111001001001
1111100011001111
1111011001001101
1111111011110110
1001001110011
10110000000
1111111011001100
1111100100100000
1111111101010001
10000010101
10011101111
11100110
10111100101
1011110010
1110000000
10010100
11011110
11100100111
101001100110
11100011001
1000101100
10010000011
100001001001
10100010101
1000010101
10011101
11101010101
11100010
1111101100011110
1110001000
1111100001
1111111100000000
100100101011
1111100111001100
1111110110001101
10101100111
1111111101000111
1111111100010011
10111100010
1001110101
1111110110010000
11101001
1011110110
1110111100
1000111111
1100110001
100100111
110100010
10001001001
100000000010
11011110101
100100010001
100011100010
110010110001
100101101001
11001111
1111110110101100
100011010101
100001100010
110001011010
101001110100
10001000101
1111110110001010
1111111000000100
100010000000
1111110010001011
101101011
10011100011
1111111000100010
1111111111111001
101101000
110101
1111110001010001
101101110
1011011
1111111101011010
110101001
100101011
10000110110
101001011011
100000001000
1111011101
1000011110
10010110000
11100110100
11010100110
110101011101
101111011011
1001111
10001001101
1111111010101100
101001010
11010111010
111000111
1111110111001001
110011110
1111111011110110
1111110110110000
10010011000
10011
1111111111110011
1111101100
1111100100
10011100
1111111100010000
1001010000
1100100011
11101010111
10110100000
1011001100
11000101
1110010001
101000111011
100001010100
11110111110
100010100000
11001000111
1111111011110010
1111111111101111
1111111011101011
1111100110000100
1010001111
1111111011100101
1111011011100101
1111100011010111
1111101110010000
1111110010011110
1111011100000100
1111101110110001
1110100110
1101110100
1001010100
10100011111
10110010000
10110111101
110001011101
11101011101
110011011110
111101101
1010011001
11000110111
10110001001
100001101101
111001100001
110100111
1000111
1111111100101101
10010110
100011101
1111011011111010
1111111001101010
1111000010010001
1111101000100010
1111011011001000
1111010111100111
1111000100001101
1111000010000101
1111001101010011
1111010111100001
1111011101111010
1111110110000110
10110100011
100011011111
110000110110
1110011110
1111110010011010
1111111100100010
1010010110
1111111111000101
1111010110100010
1110110101101011
10010110000
11011101110
100000101
1111111011110000
1111111100101111
1111111011101101
111100010
101010011
1000000
1111011001001010
1111000111101011
1110101000001000
1110110101011101
1111000010011001
1110111101010010
1111011101101100
1111110101100111
1111011010110100
1110100110110101
1111001000110100
1111011110111110
1111100110010100
1111000000100110
1111001011100111
1111010110001011
1111101111011101
1111110001010010
1111111101111001
1111111000101001
1111111100000100
10111010
10110101
1111111110010010
1111111100001101
100100001
100011
110011001
11100110
1111110110100011
1111101111001100
1111101011110001
1111101011101101
1111000110010111
1110101100111010
1110100010000100
1110010110110100
1110101011110001
1110111111110100
1111001110101110
1111110100001100
1111101010000111
1111111010001010
100000010
100101
1111111111111101
100001100
101010010
1111111100000000
10001001
