100111011
1111111011110001
1111111110101110
1111111110110111
1111111011111001
1111111110111011
1111111100010101
1111111111010111
1111111110110110
1111111110001011
10010111
1111111100111001
1001111111
100100011
1111111010110000
1111111101111110
1111111010100001
1111111111100101
10000110
1111111101110111
100010001
1101001
1111111010100011
1111111111110111
100000011
10101110
1111111110101011
1011011
100010011
1101
1111111010111111
100100101
10101110
10111010100
1000011100110
1001010111110
1000110100110
1110100100110
1000111010010
1011010101011
1010011101101
111001010010
1011001111
11000101001
1001101011
101000000100
1011010100000
111110011101
110100111111
1000011010001
100111110011
10101110111
11011001
1111111100001010
1111111111111101
1111111101000001
1111111110100100
1111010
10011001
11111100011
11101010010
10000000010
110110101100
1101001110000
101101011101
1111110101101111
1110110111
100101110000
11101110010
1111101100010011
1111101010100000
1010001000
1111111011000110
1111110111101111
10001101011
1000100110
101
11011010011
10101001111
1111111011110001
1111101000001010
1111100111010001
100100000
10101001
1111111100001001
111011
1111100001010110
100100100101
100010000111
1111110001010010
111000100
10000110
1111111110101000
101101011
101111000
1110011101
1111100101110111
1111011010001110
1111011100001111
1111011001011010
1111011110011100
1111100000000101
1111001110001000
1111010100010101
1111011001001010
1111110111111110
100010100010
101001111110
1111101001100101
111100100
10101100001
111
1001011
10100111
1111111100110010
1111110101110010
100000000
1111100100100110
1111110000100110
1110010010
10011001
11111011010
1001010
1111110101011100
111100000
1111110010100000
1111101101100100
1111111110001001
1111110001111010
1111111111001011
1111100001100111
1111001000010001
1111101010011001
1111011011000100
1111101110110110
100111110001
1111110101011110
1111111111100010
1111000111110000
1111111101000111
1111111011010100
100110001
1111000110
1111101101001001
1111010111111001
1111001101111000
1000101000
1111000001
1111110111011110
1111111010011010
1111111010001011
10000001011
1111111100111100
1111100000111001
1111101000101010
1111011011000101
1111100010100010
1111101100000110
1111100111101011
1111111000101111
1111111010111101
1111101010100110
10001001000
100000100101
10001111011
1111001001101000
1111100110101100
1000001101
1100011
1111110010110100
1111101111
1111000000110100
1100010101
1111011000111001
1111111010010101
101111100
1111111110100100
1111111100000011
1111111111001010
1111111001010010
1111110110001101
1111011100111011
1111011001101010
1111110010001001
1111111000100110
10001001011
1111111111010101
100010110110
10110010101
10000100111
100111101010
10111001111
100000000110
11110111010
111110111
10010110
1111111101101010
1111010100000010
1111101110001011
1111000100011010
100000111
10110001100
1111101011101001
101000000
1111110011100011
101100
1000111101
1111110001101110
1111011100110101
1111101111000010
111101001
100101110110
101010111101
101111011010
100011100010
101000111110
10010010101
10010111000
100011001010
1101001011
11101001100
101110011000
1001101100
100000110
100011111010
1111110011101110
1111111110110111
1010010110
10101101000
1010101000
1111111001100011
111001110
1111110010010001
1111101001011010
1111100000111110
1111100110011011
1111111000110011
1001000011
11001010010
101111101101
110010111110
100100010110
10110000000
111111001
10111010001
1100101000
10000001101
100101001100
110111101001
110111001010
110100000
1111110101100010
1111100110001111
1111001010001011
10011000111
1111111100010011
1111101110111111
1111110100000111
10101111
1111111100101111
1111111100101001
1111101011001110
1111011110001011
1111110010110001
11100010
101101010
110110000
1010101100
10111100011
10110111
111001111
1010000110
110010111
10011101000
1101000000
10011111111
1000001001101
111101111001
110011110000
1111101001010011
1111101010000110
1111011001101111
1111111010111100
1111011111
1110110100
1111110001010010
1111101000010011
101100111
1001000
1001000010
111010010
110000111
10001110110
1111110101001011
1111100111100101
1111100111110000
1111010111111001
1111101001000101
1111110010001101
1111111110001001
1000110000
1111111001011101
1111111010011110
101000001
1110000001001
101011001
101000101010
1111101010101001
1111101000101110
100011001
1111100101011101
1111110000001001
1111101010100000
111011
10000100
11111
10000111001
11111111
11000011001
11011101101
10100010001
1111111010101010
1111111010100010
1111010011110110
1111011011011000
1111001101100011
1111100000100100
1111111001111010
1111111100011010
1101101010
1111111111001010
1010000110
1101001001101
11100110111
110000000000
10101101100
1111110000000000
1111101011011110
1111110101111100
1100011010
1111101101111010
1001001100
10001101000
1111111111001101
1111110111111110
1111111100101111
11000010110
100001011101
11110110000
10001101100
1111111
1111110100101111
1111110011101010
1111110110011110
1111101010100011
111001
10001110100
1110111011
101001001001
11101110100
1000001110100
10110100100
110100011101
111111011
10010011100
1011011010
1111100111000010
10000000001
1111111010111100
1111101111
1001011110
1111111110111110
1111110100001001
1111111111101111
101010000
1110111
111011101
1101110100
10100010000
11101111001
11001010011
1111111100110110
11001011
1000100000
1111110000100011
1000100010
11011001100
1000010010010
111001100011
101100001101
110011011
100100010
11011011010
1111111111001101
1111011111000000
1111110101001110
1001101011
1110111000
1001011100
1010101001
1111111000000100
1111111100011000
1111111111111110
101111001
1111101001
100011000101
11111001010
11101000110
100011100001
1111011011
11001101
1001001011
111110001
1111110011011100
10100111110
1111111111011010
1111111111011110
1111111010100100
1111010110011111
10010110011
10000010011
110001010
1011100110
1111110001001100
1111111101111011
1111101010010100
1111111000010101
11110100110
1111111100000110
1111101101100010
1111110101001110
11001000111
101001100001
101011101011
100011011101
10011011111
100101001010
110001010
1111111101000001
11000011011
1111111110101111
1111111010011111
10110000111
10000100011
10001000
10000100010
1111110110001000
10001001000
1111100100011100
1111101100110001
1111101101101010
1111111011010101
1111101010100010
1111101010010101
1111101101010111
1111101111011010
1101101010
1001010
110001000
11111110110
100011101100
100100011110
11100010110
1110100000
1000
1111111011011010
1111110101011011
1111100100010010
1111101100101011
1111100100110001
1111101100101010
1111011100100011
1111110000001010
1000111111
1111100010101110
1111111010111101
1100
1111100100101001
1111111000110101
1110011011
1111100111000001
1111011011010100
1111111001101100
1111100011101110
1111100
101011011110
101100101000
111001010000
100000101111
11000000100
1111111001000011
1111101001101111
1111101101001111
1111011010001011
1111011100001101
1111011001100101
1111101001011001
1111011101111111
1111001111011001
1111100000111011
1000100111
1111110110000101
1111011101001000
1111101011101001
1111011110001011
1111101001001010
1111101111010110
1111101111000101
1111100010110100
1111111100110000
1111101101111100
1111101101100100
1101111100
101111001100
110000111101
110001101100
111000000111
11110001111
1111110010101110
1111100100000011
1111011100101100
1111011011110111
1111100100100010
1111011111010010
1111101111100000
1111011101010100
1111001010100111
1111011101001011
1111101100001000
11001111
1111111101010101
110000001
1110010000
1111100111001110
1111011011001000
1111000110100010
1111100100110111
1111111000101011
101001011
1111100010101111
1111110101011100
10011100
10001011000
10110100010
1110010110
100001110001
1111111110101010
1111110000111011
1111010111110100
1111011010101111
1111111011110000
1111100101100010
1111111001111100
1111100010100011
1111010111100011
1111101110111100
1111010110010100
1111010111
1000011111
11011010101
111000
10011000111
111101
1110111101000101
1111011001110100
1111111010011000
1111111010100010
1111101111011010
1111110101001001
1111111001110111
1001110
100
10110100111
1011010111
1111110101100011
1111111011011000
1111100001010110
1111101101101000
1111111011110011
1111111001101010
1111111000111010
1111101101011000
1111000110100111
1111010001000011
1111010000011001
1111101000110000
1111011001101100
1101111010
1111001101
101001010
1111101000110010
1111001001010010
1111011000111111
1111110011000100
110100
1111101111100000
1111101110001010
1111110110001001
1111101100001110
1111111111000110
111011000
11010111011
1000000100
1111111011010011
1111101000000000
1111111010010110
11010
11111110
100101111
1001110
100011010
1111100101110110
1111111011110111
1111100100110010
1111110010010000
1111101010100100
1110011110
1110011111
1111110110100011
1111100010000000
1111100000000011
1111110100100001
1111110111110110
1111101111001101
1111100001011100
1111100110111110
1111100000100000
1111101011000100
101110100
1000011011
1010100
1011100111
1111111111010111
1111101110111111
10101110
1101110010
1010001000
10001101011
1110110110
1111101101100011
1001101011
1111100100111100
11101001110
1111101101000100
1111111100011101
1100001
10101001001
100010110111
1111011110000101
1111101011100000
1111110110000111
1111011100000010
1111010101111001
1111001111101000
1111011011001100
1111101111000011
1011001110
1100110
1111110101001000
1111111101010011
100010101
10011101
10000101101
100000001001
11011010110
11101000111
11001011100
1111101100010110
1111100111100001
10001011100
1111110001010001
1111111100110001
100000111
1111111110000001
1111001100101011
1111111011110110
1111011100001011
1111011110111010
1111011110111101
1111010100000101
1111110000001100
1111110111011110
1111101100001010
1111111100010001
10011101101
1000000101
1111111110100010
1111101101010010
111101111
1111111000010001
1111111011101000
110101101
1111011
11011111110
100011001110
1111111111100001
1111110010111011
110001101111
1111100100101100
1100011
1111111101010100
1111111110010110
10100011101
1111111101110111
1111010110011001
1111110101010000
1001100100
1011100110
1111110010001100
1111111110010110
11100100011
1111111101110100
1111101110110011
1111111100101110
1111100110001000
1111111000100001
1111101100111111
1111111000110001
1111111000101101
10010110000
1100011010
10
11000001111
11100101000
1111111111001010
10010010100
1111111101100110
10100010
1111111111010110
1011011
1111111111011110
1111111100011001
10000100010
1111101101101001
1111010010010011
1111100011010101
1111001100001010
1111010110101110
1111011100010011
1111000100011110
1111110101001000
1111111000010011
1111010000100110
1111011111000100
1111100111011011
1111110000000011
1111110110001110
1101110
1111011101101000
1111010000010111
1111100110101011
1111001110101100
1111111010101000
1111100101000001
11101100
1111111011011111
1111111101000101
10101001
1111111100111111
1100111
1111100100101101
1111010100110101
1111100100000000
1111010000110100
1111000110110001
1111011110010001
1111001101111100
1111110100010100
1111100011111101
1111010001100101
1111001100010101
1111101000100100
100111101
1110111010011110
1111001111011111
1111101111101010
100000110011
10001000101
1111111111000110
1111011100100110
1111111111000001
111000
1111111101110111
100010011
