1000101
11010000
100001110
100000001
10000101
1111111100001001
101010
1111111010111011
11101011
1111111011001011
1111111101001000
1111111110100011
1111111011111010
1111101001010011
1111101001000101
1111110000100110
101001000
1111111101000100
1111111
11011
1111111111110011
1010
100101001
1111111100000001
101000000
1111111110100101
1111111110100000
1111111101101010
1111111100000101
1111111100010001
1101
1111111011111010
100010101
1111111100001011
1111110110011011
1111111000000001
1111111111111011
1101000001
1110011000
11110011000
11001000110
11001100110
1111100010111100
1111001000001101
1110110001011101
1111100100110000
11110100001
110011000001
1101101111
10011100
1111011101011111
1111100001001100
1001011
1111111100011100
10
101011011
1111111111111010
1010
1100110
10001000010
1011000011
110011001
1111111000010111
1010010001
1111110010001000
1111011110011101
1111011001100011
1110110011101010
1110110100100011
1110100001011011
1110001110000111
1110101000010111
1110110001001111
1111101111010100
1111111001010000
110100
1111110001000100
111111111
1111111000010000
1111111000101010
10010011
1111100000011110
1111111111011001
1111111101111111
1111111011001000
101011101
1111101101101011
1111011110011101
1111101101011110
1111111110011000
101111111011
1001100001110
110100010100
1111111011000110
10011111100
10011011000
1111100101110101
1110111010000110
1111001000101111
1111100001100000
1111100011000011
1111111011010111
10111010
1101110101
1111111001101011
10100111111
1011110000
1000110110000
110001010100
111111110
1111100000111101
1111111010101000
1111111101110110
1111110000010001
1111110010001100
1111010101011110
1111111110101011
10100101111
110010011110
11101000011
1111110100001000
111010100
1111101011000101
1111111101101100
10100111110
10111001
1011011
1111111100011111
1111110110010101
1111111111110000
1111110100011010
1111101110110100
0
1101100110
1111111110110100
100111001110
10100010101
110100010001
100011101110
100010000111
1101010
1111111011010110
1011000111
1111110110000010
1111100101010110
11011101
1111111011110000
11010011000
1111111111110010
1111110111010000
1111111101101101
1111110111100100
1001001101
1111111100001011
11011011
1111110000100001
1111111101000010
1111111101101101
1000011111
1100000011
10010010101
1111111110110000
1111110111100010
100110100
1111111110001111
100110010100
1111011111
11111101010
1111111101011101
1111110000101011
1111100010010100
1111111010101101
1111100101011001
1111110010011011
1111110110010000
111000100
101011011
1010001110
1111101011101000
1111010010111110
1111101101100100
1111011011100110
1111110001110111
1101011101
11010010001
1010111010
1011111101
1010101111
101011011
10010110
1111111001001000
100111110
1111101110010011
111001111111
1111110010000001
10111011011
1111111011100101
1111011010100101
1111011001001101
1111111101110000
1111111101100111
1000101
1111110000101110
1111110001010101
1111110011010101
1111111010110100
1111110101111100
1111011110000100
1111100111000011
1111100111111110
1111011101001001
1111010000
1111111010010000
1111011110
1101010000
1111111101111110
1111110001000100
1111111100111101
10101110101
1111110110101011
1111111100110001
100111000111
1111100111100110
1100101100
100100101100
1111011101110010
101011010101
10000011111
1111101000010111
1111110110010000
1111101110111110
1111110101000000
1010000110
1111111011111000
100011000
101111110001
100110000101
100000010011
11110010100
1101000001
1011101010
1100011101
1010110010
1111101100
10000111011
1111100010
1000011111
10011010100
11100000001
10110100001
1111110100000011
1111111100100101
1111111000110010
1111011101110100
10001011001
1010000101
1111110100010000
10000011011
10011101000
100001001110
11001011100
1011101001011
1111110010001
10101001111110
10010111000111
1101001100000
111000000101
1110111011
101010011
1011100100
10111100111
100010001101
1110010001
10000100
100111111010
1100000010
1111110100110010
1111011000100101
1111111010111111
11011010110
110
1111111010010101
110100011
111001011011
1000011010010
1000110101001
1010110000000
10001100100010
11010101111001
11110111110010
10101010101101
10000011000101
1001101011000
110111010000
1111101011
1111110011011000
1111101100000000
1111101010001001
11110100
1111111100110110
1111111011011111
1111101010000111
100111000
100101111111
11001000101
1110110010111001
1111110111111100
1111011111111110
1111111001110100
11111101001
1110101011
110101111000
1000011000101
1100101110100
1001110011100
1100111000111
10000101110010
1010100000011
100011101
11101100
1111110011001001
1111110001110111
1111101001100100
1111100000110111
1111110011110111
1111101000110100
1111110001111101
1111110010001001
1111100100010001
10011111001
1011100011
10110011001
1111110000111100
1111011011001110
11110101
1111001111000111
1111111101011101
11111011010
1111111001011011
100111010
110100000100
110001010110
110001101011
1011011101
1111110000111111
1111010010111001
1111010111000111
1111000100011010
1110111101011011
1111011111000110
1111010111000010
1111101010010100
1111111010110100
10000100101
1000000101
10011001100
1111111101001011
1111111001101000
1010011100
110010000111
1100001111
1111000001001100
1111100011101110
1111011110110111
101011100
11011100010
1111101000010010
1111110100101100
1111110100111011
101000011
1111101011000101
1111011110010101
1111011110101010
1111100000110110
1111100001011011
1111100010011001
1111101100011100
1111110000010000
1111100101110011
1110011
1000100111
100111101
11000101110
1110011110
1111111110101110
1111111101000110
1011000111
1111110011
11001011000
111010010
1111111000001101
100111010010
10100110000
10111100010
1111100111111001
1111011110111111
1111001110001101
1111101110010011
1111000001110100
1111010100110100
1111111110110111
10010011
1000000101
1000100001
1111111110110111
1111110011000100
1111100001010101
1111111000101010
1111111010010010
10101010011
11011101101
1110011000
111101101
1111100110101001
1111111010000111
101110
11101001
1111110001001010
1111110001111110
100101111110
1101110001
1001000011
1111101101111110
1111110001111101
1111100000100010
1111100111000100
1111011001111111
1111111101100110
100100
10010010011
1011110010
1111101111101100
1111110100111110
1111110000010001
1111110010110100
1111110101011111
1111110100001011
11010010001
11000111001
1001101110
1111111011100010
10011001011
11000101010
1111101010101001
10110101101
1011001011
1111110001111010
1111100010101011
1111111011000011
1111001111010000
1111111001110111
1111011011111110
1111101010111010
1111100001011101
10011
10010111110
1001100000
101111010
10001001001
11110110
10011000010
1111110000010001
1111101001000000
1111111101010011
1111111110101011
11000101110
1100110010
1111110100001011
1111111101001101
1111111011010100
11010001010
1111100011101100
1111011101001011
111010101001
1111110011110011
1111011011100011
1111111010101111
1111011000001010
1000110101
1111101001001101
1111111111010100
1111101100001101
1111101110101100
1011110101
10000000010
10111010001
1001000010
1110111
1011111101
1111100101101001
1111110000100001
1001000111
101010001011
10010111001
1101101011
1111110110101111
1010110011
1001010100
1110101100
10110100111
1001000010
111001011010
10011100100
1111100000100000
1111101100001101
1111100010001011
1001011000
1111100001010010
100011110
1010010101
1111101101011110
100111010
1111101001111001
1111111011100010
1010110100
1111001010
10000110011
1111110101101001
1111111011011100
10010000111
100110010111
101000101
11101001
101011100
101111100
1111110111101101
1111111000010001
11001101111
1110110100
10101010001
10000010000
1111100111110101
1111101100100111
1111110101001111
1111111010001100
1111010111100011
11001011111
1111010011
1111111011100111
1111101111000110
1000011011
1111111111001011
10111111110
10010111110
10100000101
1111111100100001
100110111
1001110110
1010011000
1111111100011011
1111011110
110010110
1000011110
1111111001111001
1011010010
11001000001
100110111
101101010111
10110001001
1111111010100001
111011
10100011000
1100101100
11011011
1111111001010111
1011001111
100110011
110110
1111110111100101
1111110110100110
1001110100
1111111000101101
111110001
1010
1111110011110111
1111101
1111111010010001
1111111110110100
1111110111001100
1111110100000101
1111110000010101
100110101
1111100110101101
11111000100
10001100100
10101110110
1111101101110110
10111
1111101111000000
1111011110100010
1111011011110001
101100101
1111110010010110
1111111010101100
1111111100101011
101100011
1110111011
1111111001000010
1110101
10011011101
10111101110
1011011011
1111110000000110
1111100110001111
1111110111101101
1111110100100100
1111101111111000
1111111001100110
1111111000101111
10011101110
100001000000
1001110101
110000011
101001001010
1111011010100110
1111110111111111
1111110100110011
1111100101001100
1111100101001011
1111110110110000
1111100000
1111101111111101
1111111000011010
1111111001100100
1111111100110111
1111111111001001
1101100100
1111100100
11010001100
100101110
1111101111100000
1111101100000110
1111111000111100
1111101111110011
1111101000011011
1111110101101110
1111110001101100
1000010101
111101110001
1111111100111111
11101100011
11010011011
1111011011101110
1111110001011000
100101100
1010100
1111011000110101
1111101110010010
10100100111
1111110011001011
1111111011011101
1000
1111110100011011
1111111001110100
10111001010
1101000
1111110000111000
1111110001011111
1011101
1111110000011110
1111101111110110
1111110000101111
1111100001110101
1110010110
1111111111010101
100111010010
100110110001
11111110101
1010101000
10000101101
1111010011000011
1111111100101000
10000101
11000000
1111110011110111
1111001010100010
1100110110
110110100
1111111001110110
1111110101111101
1111111001100110
10000111
1111101110100101
110011101
100100010110
10100001011
10010001
10011001
1010001010
1111100001101011
1111101000011010
111110000100
101111100010
10011000010
10011011011
100
1111111001011111
1111101111110000
1111100110011111
1111111011101001
10011100
100110011
1111111001101000
1111111110110011
1110110110101000
1111110100000110
1111101111101001
1001001
1001110
10010000
10001101000
10101110011
1111100101111111
1111101101110000
10010010011
101000001001
110000101001
101110001101
110001100000
110111101111
11010001111
110011000011
110110100011
100101101010
11001000000
1000101001
1111111011011010
1111111011001111
11001111
100101000
100001100
1011000
11010100000
1111110101000111
100101100
11100000000
1111101011010011
101101110
1111011111001011
1111101010001100
1111010110100010
1111001110010110
1111101111111111
1111110000100000
110000010
110111111
111001001
111010110100
1101111
1111111111100000
11011000111
1111100100001010
1111111001100100
1111111010011001
1111111110000101
10001111
1111111011110110
10111010
1111111010111100
1010000
1111111001000011
1111111110111111
1001001101
111110101
11010101001
100110000111
1111100101110001
1111101001000011
100110011001
1010110110
1111011010011111
1111100010010111
1111100101100011
11100100
11100011101
10100101100
10101001
1111111010001101
1111110110110100
100001011
1111111100110001
1100110
100101101
1111111111001111
