11110101
1111111100101010
1111111110111001
11001011
1111111100000000
1111111101010010
1111111100001111
1111111011011010
1111111100110010
1111111101011001
100100101
1111111110100101
11100101
110000011
11001
1111111100010101
10001
1111111110000000
1111111111100100
1101110
101011101
10110110
101010
11000000
1111111010111110
10111100
10011
11
0
1111111010111011
1111111111111110
1111111100110111
1111110101100001
1111111010000111
101101001
1111111101100100
10001111110
100101001000
1111111111101100
11001111
1111111001000100
100000101001
101111010101
101111101100
111010000101
11000101010
1111111001110100
1111000111010101
1111011001001101
1101110101
1101010000
1100000101
10111000
110010
100110000
100110000
1111111011111001
100100111
1111111011001110
10010110110
10110100010
1111011011011000
1101111000
11100000011
1111101011011110
1111101110000100
1111111011101111
1111100110001110
1111001000010100
1111101110001001
10000001110
10100111111
10011111111
1111101001100010
1110111101100100
1110111010110001
1110110110110100
1111000001010111
1111101000100110
1111111110100110
1111111001001011
1111110110001010
1111111011101111
100000111
11110111
1111111011111010
1101000011
1100000011
100000111
1111100010111110
1111000010010110
11110110111
100010011000
10010010100
1111100001011010
1111001100110101
1111001101110110
1111101010101110
1111011110011101
1100010011
1111101000
1111111111110110
1111110110011010
1111110110000000
1111111011110100
1111100101110011
1111011011100111
1111110001110000
1111110011001011
11100000110
1010001111
11010011
11001100
1111111111001001
100100011010
10010010111
1111100100000111
1110111110101011
1111001010000100
1111101100111101
1000001101
1111111011110010
1111011100011111
1111011110110001
1111001100111001
1111111010001001
1111111011110100
1111111010111011
1111111110110000
1101000010
1111101000
11100001100
1111100011
1111111101101010
1111110110100011
1010100001
1111101010110010
1111001111010001
10011101001
1111111100010101
1111111101110010
1111111101010010
1001110110
1111110111111001
1111100001011000
10110110000
1111111011011000
110011000
1111100100111001
1111110100101111
1111011001000111
1111011001010011
1110111100111101
1111100000000100
1111001100100101
1111100101111101
1111100111101100
1111111110011101
1111111010011011
1101
101100101
1100110010
11000101101
1111110010001110
1111101100011010
1111100001000010
1111111010110011
1111110001011011
10100011
1111100100010000
110011101
1100000000
1111110010111011
110110111011
101100111110
100011110110
1111110101100000
1111001110001101
1111010110001110
1110101110010001
1110110111000000
1111100000101101
1111111101001100
1101011110
10010000010
10011000100
1000111100
1111110100101010
111100111
1001111110
1111111111111001
1111011101111010
1111101110110110
1111111010111010
1111100011100110
1111101010000111
1100000
1111101
11000001110
100111011101
1011000000
110101
10101100110
10111011111
1111100011011111
1111010100001100
1111001111000000
1110111110001001
1111110000011011
11010110
100010111000
101001101000
10100001110
111101001
1111111011111111
1110110100
1011001101
11001000101
1101000
10110101001
10001000
1111100000
1111001100000100
1111011100001000
110111111
100001000
1011000000
100000100
1111111001111011
10110100111
11100101000
10001010100
1111111001000010
1111101010100110
1111101000101111
1111100110110010
10101100
1100001111
100001100111
100101100011
10101011111
1010000111
1111110101010110
1010001010
1001111111
10101000
110010011
100011010001
1111101000111110
1111110010011100
1111110001111101
10101000110
1110100111
110011011100
1111100000000100
1000110000
1010101011
11011100100
10011001010
101010000
1111111000001001
10010110
1111110101011010
1111101011111011
1111111101000011
10000001111
1111000011
10101110101
11100100
1011010011
1111110011010111
100001100
1111101001101111
1111101100001011
10010011
11111110
1111101110101101
1111001111010101
10000001110
1001000010
10001011001
110100101010
110010001
11001010
110001111
101011000
1010000111
111010000
1110010100
1010010101
1111110110110001
10011100
1111111010011110
1111111010110001
10101110011
1111001100
10010000110
100001010
1100011110
11110010
1110100110
10001001111
1010111100
1001011010
1111100001010111
1111001000011000
1111010110011100
10101111001
10011111011
110111000000
10011110011
10110100010
100110010001
1111100101110000
110000
1111111111100110
1111111101101111
11000001010
111010100
1111111010100001
1111101011111101
1111110001110111
101000001
1000010000
10100000101
11110000101
100100001110
100010010010
110000110010
111100111011
1010001111011
111100110100
10011001100
1111100001001010
1111101001010001
1000011001
10100110111
101010001011
1111111101010001
10001111001
11110000100
111010001
10110100010
10000
1111110110111010
1111111110001000
1111110110000110
1111101110111011
1111000111110000
1111000011111100
11010000
10111011011
11110111011
100110101001
100011111101
101100010111
110100100111
110000111100
1010000001001
1011111110110
10111011000
1110100
1111101100111011
100000011010
10000011001
1011000011
1111111101001111
11100101100
11111011110
11111111
1111110111100010
1011101
1111111100000001
1111110111101100
1111111110001101
1111111111011100
1111101000111000
1111101101110100
1011010111
11011000
1001100100
11101000
1111111001111000
10101000100
100100000010
1100000101
110010101001
10001011111
1110111100
101010101100
1010100100
1101100
1111100110011110
1111111100001100
110110000101
10101101111
100101110111
10110001
110110111
1111110110011110
1111111000010011
1000111110
10010011111
10010111100
1111111110000101
1110011
110001111
11101100
1111101111111000
1111101111010011
1111110111001110
101000101
11110101111
101011101101
10110101001
100000000011
1111111100001111
101010101100
1011111000
101001110
101110
1111111110111101
1111111001101001
1111101100110001
10101011
1111110000101001
1111111111010101
1111110110010010
1000100
1111110100001110
1111110111001001
1000011
1111111100100100
1111111010001101
1111111110011000
1111110101000101
1111101111010010
1111101100110110
1100000000
1111110010001111
10100101000
1000101111
11011000010
10100101101
11010010001
110000000
1111101000100011
1111011001000001
10000111101
1111101100011011
1111111110101011
1111001111011101
1111111101000110
1111011011011001
11010011
1111111101010001
1111111000001110
1111111000101001
1000000110
1000011001
1111110100010101
1111100111111110
1111100111010011
1111101101111111
1111111101000010
1111100100000100
1111101001110000
1111101010010011
1111110010100110
1111110110111001
1111110111101101
1111101110011011
1111110111100111
1111101101101100
1111111011100111
1111111110100110
1101
111001011
1111110100110011
1111101110110000
1111100010111100
1111011111110011
1111100100100001
1111110000100001
1111110000001100
11110011
100001100011
11100101110
110011100
1111110011111101
1111111101111000
1111110011011010
1111111000101101
1111100001100000
1111011000001011
1111101110010011
1111111000000100
1111101100100011
1111110011100011
1111110010100101
11011111110
10001010101
1001000001
10011011000
100010100111
11001001
110100111
1111110000001001
1111011101111110
1111100110010100
1111110110101111
1111101110010110
1111111001000000
10100001110
110110010111
101100111001
1111111011011010
1011000101
111101001
1111111101100110
1111101100110001
1111111000100100
1111110111100011
1111101111111010
10011000
1111101010000100
1111100010011011
1111111001001101
1111100100100011
1111111001011011
11100100110
1111110011010010
10110011100
101000010000
1110001001
1111110000110100
1111110011101011
1111010100011001
1111100101110111
1010100111
1111111101011010
10100101011
10111100001
10001111011
100011110110
1100010110
10100000011
11011100
1111110000111010
1111111001010001
1111110000001101
1111011000110101
1111110111001100
1111111011011111
1111101000010001
1111100000110011
1101001
101000110
100110110
110000110100
10110101
11011101001
1111101000000010
1111011001001000
1111100110001001
1111110101011001
1111101100011011
101100
10011100
110100110
1111111100110101
1111111011000000
11111101
10110011001
10110101101
1111111000110110
1111110100110000
1111101100101001
1111010101100001
1111000110111010
1111001011010111
1110101010111010
1111010100110111
1111010010001001
10111110
1001010001
1010001000
10011100100
10001100100
1111100110000100
1111111101111110
1111011011011110
1111100110011111
1111110111110110
1100110111
1111100110010001
1111110100001100
1111110111110011
11100000
1111100111101100
1111100101000010
1111111000001001
1111111111000010
1111111000100011
1111111100000110
1111011111100010
1111010110101101
1111011101001101
1111001111100110
1111100110011111
1111101101101101
1111100011111010
11011101011
1111110000101001
111110001
1101101000
11011001110
10101110001
1111010000000010
1111111001110000
1111111000111100
10001100
1111101111111010
1111111110110010
1111110111100000
1111111111010101
1111110101001011
1111100110100011
1111110001001100
111111001
10000100101
1111111011110001
1111111000011101
1111110101111010
1111101000011110
1110101010000111
1111010011111101
1110111111111000
1111011101101001
1111010001110111
1111110100111011
1111111011000010
1111110001000101
1101100011
100110110
1111111100101101
1111010000101101
1111100010010000
1111101000101110
1111010011011011
1111100100111111
1111110111111100
1111111100011010
1000011110
1111110101111110
1111101111111011
1010000101
110100011
1111110011101101
1111110000010111
1111111001101001
1111111010011001
1110111000011000
1110001111000010
1111000100011000
1111011011000000
10101011011
1111101011101110
10001010011
1111111100010101
1001101011
1101100
1111111010101100
10100011
111010101
1111100010010111
1111101001011000
1111010111101011
1111011101001011
1111100111101001
1111100010110101
1111101010011110
1111111001111011
1111101111111111
1111011110101111
1111101011101010
1111100001111010
1111110
1111100000001110
1111011110011000
1111011101000000
1111001010011001
1111010000101000
1111010111111100
1111111001010010
1111110100101100
1111010010000010
1111101001111101
11001100111
1111111111111000
1111111111000000
1111111110101100
1111101100000000
101001010011
1111111100000011
1001001001
1111011011110011
101110111
1111110100111011
1111100100010111
1111100010010010
1111110000011000
1111110010000111
1111111111101010
1001110000
111011000
11011110101
1111110100101101
100000011
1111111001001001
1111111010001000
101101111
1111111110000110
1111110110001110
1111101000011101
1111111000011100
1111110110101011
1111100
1111111011001001
1111111010101111
1111111011001100
10110010
1111100001110110
11111010010
1000010001110
10110110010
100010000001
101001110101
110110101
11101010111
1111110100000100
10000010111
110111110000
101000010011
11000100000
101111111010
111111011010
101101001100
1000100111011
111000010011
11000101110
11111000001
1111101110010010
10110010111
1111111101110010
1110111
10101101
1111111100101111
1111111011010100
10111111
1111110111000101
110110110
10001111000
11000000111
100101011101
110101010110
11110101110
111111001
10101100
11101001111
111101110101
1100111100
101011101011
1000111101001
111000011100
101001010101
1111111011101101
1111110000010100
1111111100100101
10001111100
101011011
1111111011110000
1111111011111010
1111111110011000
