10111001
11000011
1011111
1111111011101101
1111111100010001
10101001
101011100
1111111100101000
1111111011100011
1111111100000101
11000100
100000
1101100001
10001011110
1111111010000100
1111111111010001
1111111010110000
1111
100001111
1111111110011111
1111111010100110
1111100
1111111101101110
1111111110011111
1100110
1111111110110111
1111111111000011
101010000
1111111110111011
1111111101111111
10100011
1111111111111101
101111100
11000100000
110001101101
111101110110
111000101010
1001111010001
110110111110
101001011100
111100000100
11101111111
1111110111101100
100011010000
100011110000
1001000001010
1110001000110
1011101011110
1001110101001
101010011100
100101110101
100111011010
1
1111111010110000
1011001
10101101
1111011
1111111111110000
111110
1101010011
111001001
10000000111
111001111010
1001000011111
1110111101100
101011100101
110101000111
110111111101
110010010101
11011101100
100100110110
111000000101
110011101100
11111100011
11011000010
10000111100
1111111010011111
111000101100
11111010101
1000101011
1111110110010010
1111110010101101
11111010
1111111011111011
1111111011010110
1111111100101111
1111101010010001
10111110000
1111110010110111
101011111111
110101000001
111000101111
11100100110
100011111100
111000101000
101110110010
101001111
10000010100
10001111011
110110000
1101100100
1111011100011001
1111100010110110
1111110100010111
1111010110010101
1111100101001101
1111111010001110
1111011111100001
1111001001010000
1111011111001010
1111100101100001
1111111011111011
1111111100000100
1111111000001000
1111101100101111
1111110001010100
101110000
10100010110
1000011010
101000111000
100001001
10110100010
11100001000
1101010
11101100
10100110
1111111110000001
1111101111100101
1111110111011000
1111110110101010
100000110
1011101010
11000011010
1111101001001100
1111100110000011
1111010111011011
1110111100010011
1111011111010111
1111010101001010
1111110000110111
1111111110101110
1111111010110011
100010011011
10010010011
11001111001
1100011111
101100110
1111111000110010
1111111001101000
101100001
10010100000
1000001111
1001111010
11010111110
11111101110
11100010101
1111111010
10100111111
10010010111
1110011000
1111110100011001
1111101011011011
1111011001010000
1111110000000111
1111001011100001
1110101110110011
1111001011110001
101111111
1111111100001011
1111110111110110
10010100101
10111110100
11001010011
1111100011100110
1011100011
1111101111011110
1111110011000011
1001101
1111111101101110
1101101101
1111000011
1100111111
11100001011
100110000010
1101100010
1111111100000010
1111101011111010
1111110011111011
1111100010011101
1111111101011001
1111101101111010
1111010001001000
1111101111001111
1111011111110011
1111100100010111
1111100100001100
1111111111010111
1111011001001010
1111100011110010
1111101111001111
1111111000010111
1111101110101101
111100011
1111111111000100
1111110110001101
1111111001100110
10011010111
1010000010
101000100
10111100100
101100101101
1010010101
1111110011011011
1111010110110010
1111001001101111
1111010110100000
1111100111010101
1111111111011000
1111110011111111
1111011010111101
1111101001000110
1111010010110010
1111100110100010
1111110011100110
100011001010
10001100001
1111101111010001
1111111111110001
1111111011000101
1111100101001111
1111110100000101
1100001001
1111111110110000
101100010
1011101000
1111111100100000
10000010011
1011101100
1011100111
1111101110110100
1111011000111011
1111010000011011
1111001011000110
1111101010010011
1111110110101110
1111110100111110
1111110111111011
1111111110000101
1111101110111100
1111011001110101
1111011100110000
1111011101100110
1111110001100010
1111011001110010
1111110100111001
1111100101010011
1111110010110111
1111111000000100
1111101010000111
1111111111000011
1111111111101011
1111001111
10010010110
1100111111
11010010111
10101100011
1010101
1111011000001100
1111001111100100
1111001111010010
1111100010001111
1111111010011000
110001110
1110111100
11110001
1111111000000010
1011111000
1111011000011111
1111011110110000
1111011110101111
1111101000000110
1111011100111001
1001000
1100111010
1111110100011000
11000011111
10111100111
1111111111010100
100001101
10001100100
10001000111
11010110111
11100101001
1100010111
1111100001101000
1111011110000011
1111100011110111
1111100111000100
1111100110000000
1111110011111001
1111111100111111
1111111101010101
10010001011
1100011001
11111101100
110110011
1111111110101110
1111100001100111
1111100011111110
1110001110
1111011110101110
1011100
1111110010101100
1111111111001111
1111111101010001
1111101111011110
1111110010011011
1111101100111101
1111111011111100
1100010
1111110010001101
1111010010111111
1111010100001001
1111101111001101
1100101011
10011011
1111110100110101
10111111101
1111010110
100011010110
1100010110
11001000010
1100000110
1011011
1110110011100000
1111101011110011
1111100111111011
1111000110011011
1111100100111001
110010011110
1101110110
1111101111001111
1111101010100010
10001001
1000010111
11000
1111111000010011
1111110001100000
1111000100111101
1110110111001010
1111010000110100
1111101110110100
100000000
1010000010
1111110111011101
1111111001000110
11101000110
1101100010
10000110000
1101110111
100010000101
1111101100001011
1111100110010011
1111100001111100
11010100111
1111110001010110
1000000101
11001000010
1000010111
1111101100011011
1111101010100111
1111110011100000
1111101011000100
1111110000011010
1111111010110001
1111010111001111
1111001001000010
1111001110101100
1111100011001100
1111101010000001
1111100100011011
1111100101101110
1111011101000001
1111110000111001
11001011
10010101111
11111100111
101111000010
101111001100
1111101111101100
11010011
10010111000
1100011001
1111100000100100
110101110
10001010000
1101000111
10000001
1111111111101010
10100010
1111100111101001
1111110000011111
1111111011100010
1111101010011000
1111100010010000
1111011101100111
1111100011011101
1111101100000101
1111101001011101
1111000111010010
1111101000011101
1111100111110100
10111010001
10010011001
101010011011
10001110000
11001010010
1111111001110110
1111101011000111
100000101110
10100101
1111100001111010
11010011
110110
10110
1001100001
10110
1111111001000001
1111110111100101
1111111110010101
1111101110010010
1111101100000101
1111011000100010
1111011111011011
1111011000100000
1111011011101100
1111100110110111
1111000111100010
1111100010001101
1100010101
10000101100
1110110100
100101101
1000101011
100111101
11101001101
10100110000
110100101
1111011100111010
1111110101111010
1111111010101110
1111101111011011
1111110110100000
1011110110
1111110101011010
1111111011001000
1110100110
100000010
1111111101000010
1111110110100110
1111011101010100
1111100101110010
1111100011111110
1111100001001000
1111010001101111
1111010111101111
1111110011101101
10010010110
10101110
1000001111
10101010010
10100000111
10110010111
11010100000
11100011101
1010000110
100100100
1111101100001010
1111111111110011
1111011011101100
1111111110001000
1111111010111010
1111110000111010
1111101110011001
1111111011010111
1111111100101000
111011010
10000010011
1111110100101010
1111101010000000
1111100001100011
1111010111100100
1111100010011010
1111111100011110
1010001010
100110100
1001011000
110101110
10010011010
100100001
11001010
100110101110
101101111
100000010101
1111110001001101
1111110111010000
1111100100100001
1111101100001011
1111101111000001
1111011101010001
1111101100011111
100110110
110010110
1111111101110111
1011101101
110001010
10001110101
1111111110011000
1111011101001110
1111101011110101
101011000
11001100011
10111001111
110010100
1000010110
1111110101010000
1110001100
10001000
100100101000
100110011110
1111111110000011
100101001101
10110000101
1111101110100001
1111011100110111
1111011101011110
1111100110110010
1111000110010111
1111100100000010
1111110111011100
1111110111100101
1111111101011011
1111111111110111
11010011110
100001101110
11010011011
10000000101
1111111001111001
11011010
1011100001
1011111000
10101011000
1111111110
10010111000
1101010110
10110001000
10010001
1010011000
11011000000
101010101100
1111111011000100
1111111000010011
1111110101100001
1111011100
1111111000110111
1111111010100100
1010010101
1111100110100011
1111111111011000
1001110110
11000000
100001010101
101000001111
11100001010
10011111110
1111111011011000
111010110
110000111
1100111011
10110111110
1101110110
10111101111
10001110001
10110011001
10011011111
11110000
1111101111
1010010000
10100011010
1111110001011011
1111011111110100
1111110111010011
1111111011110101
11101011010
101001101
1010000000
1111111110101111
10111000110
11100101001
100000000000
11010110100
100100001011
101001010110
1111011110
1111111111100010
1111111110101101
11001101
1100111
1111111110001001
110111111
11010101001
100110111010
111110001011
1101100111
1011110010
1111111001110000
11011110001
10111011110
1111111100001111
1111110010110010
1111111111100011
10110000011
1111101011
110110
1100110000
10111100001
10000111000
1010110010
11101001000
100001000000
10110001101
100001101000
10111110110
100000011
100011010
1111111111011001
11011111101
101010001110
1011000000
10111011110
10000101001
1111100011100010
111101110
1111111001100111
11110111
11010110
1111000111001001
1111111111101110
1111110110101110
1001000000
110111010
1111100000001101
1111111100101011
11000111
100100101
10101010
10110011110
11011101011
1011001100
10100001110
11110011
10100101110
1101001
1111111100101000
10110000011
1111110110010111
1011101011
110010101
1111110100111000
10100000
1111011101
1111111101100111
1111111101001101
100000110
1111011110100011
1111010010010111
1111011100111011
1111100001010110
1111110011111110
1111000101111000
1111101001101011
1111101111001001
1111111011100101
1001101110
1110011111
1111110000010001
11110011
11000000
1111101011101110
1111101010001001
1111101011100010
11100010
10000000010
1111111111101010
1111110000000000
11011110
1011100010
110011000101
11100011
100101001
1111111100000100
1111111101100011
10111000011
1111100001011010
1110111001110010
1110100000010110
1110111010111111
1110100011001101
1101111111100011
1101000110100100
1101100000101010
1101010010100011
1101100011100010
1110000001010110
1101110110010011
1110011101001010
1110110100011001
1111000000110110
1110100111001100
1111001010100001
1111111110110010
1111110101111100
1111011010011111
1111101001011110
1111011001000101
10110110110
111101110
1111111110101111
111110
100111010
100111110
100011000
10110101011
1111011011010011
1110011111100001
1110011010011000
1101111010101101
1110100110010001
1110100111110101
1110111101110101
1111001101010101
1110111110110111
1110010011100001
1110010001111011
1110010111011101
1110001100010000
1110001101000011
1111011001111010
1100000001
1111010111
10101000
1010110011
10000000111
1111111010010100
1111111110101011
101011101
1100011
10011001
10110100
10110001
1111101110101000
1111101000000111
1111110100011001
1111110010000110
1111011110100110
1111010000100110
1110111001011111
1110110111111110
1111010100111100
1110100101000111
1111001111101011
1111001110011010
1110010110111100
1110011101111001
1111001010000110
1111110111111000
100100111011
10000101
1111111111001000
1111011010110100
110011
1110100
101
111011
