1111111110100101
101000
1101101
1111111101100001
100010111
1111111011111010
1111111101001101
10001001
1111111110010101
11010100
1010001
1111111111010001
1110011011
11001010011
1110111101
11010111
1111111101001100
1111111010100001
100101
1111111011010001
11000101
10100010
1111111100100111
1110011
1110011
1111111010100001
11101
10011000
1111111111111100
1010100
100011110
1111111100010110
101001
101111100
100000100110
101100010101
101001000111
111001101111
111000000000
1010010010000
1001111111101
11111100110
1111110100100111
100101001011
101111010010
101111000000
111000010000
110101100100
111010101000
101010001000
100110101111
100011101001
1000100
100101010
100110000
100001101
10000011
1011111
1000001
100000010101
101100100101
10110100
11011110101
110100000001
111110000000
1000011111001
1011000110010
1010100110110
1011101111011
111001100000
100101000101
101011000000
1011011000100
110101010111
1001000111101
1001101011010
100100000010
100110011010
111010111000
1000110110101
1000001111111
111000100101
101000111
11011001
1111111100011101
1111111010101111
1111100011000001
100111100010
11111111101
11000100100
1000101000110
1101011110100
1011000110101
100100001000
11000110001
110101000110
1001110010000
1010010101100
101110000000
100000000110
101001001101
10011000001
100110100
10001110100
100010111110
11000111010
1111111010011101
1111111011011110
10111110011
1111111100110001
10101010
1111111101001110
100111101
101101000
1111110000010011
11001110111
1111111101100110
1101011101
10011100110
10011001101
1111101001000111
1111100111111111
10101001100
11101101111
1011010100
1011101101
1111111001100000
1101101100
100011100
1111110111001101
110100
1000111111
1111101111101110
1111100010101100
1111100011100110
1111101100100011
1111100011111010
1111011100100001
1111111111101100
10001001
1111111011101110
1111111101010010
1011000111
101010111001
100100100001
111010000101
1011101101
1111111101000000
1111101111011101
111100000
1111010011
1111101001010011
1111100011111110
1111101011010001
1111011111000111
1111110101000111
1111111101010011
1111111110101000
11010011
10110
1111111010011001
1111111111110110
1111101000011011
111000
1111111010000010
1111001001110110
110010010
1111101100101111
1001100
1001111001
1100011111
1000010010001
101001010
110000001111
110010100101
10111111100
11010000101
10010110110
10000000010
1100000110
1010101
1111111111100001
1111110110011111
1111111000011101
1110100111
1001000
1010101011
1100101001
1111110111100110
1111110111011101
1111110011110000
1111010010101011
11000100
1111101111100001
1111101010001000
1111111110110110
1000100
11001001
100110100
10000110000
1111110110111111
110001010000
1000100101101
101110010011
11101000011
1010110010
100101101100
100001011101
11001110110
11110111101
100110000000
10011010000
1111000100
1011010000
1000111010
1101100
1111111011100000
1111111101011101
1111101011010110
1111100101011100
1111111010101010
1111100011110101
1111110101011000
10010000111
11011110101
10001110100
101000000
1010000111
100111110
11010000000
100001011
1111111001110001
1101001000
11000010111
101110001110
11101110101
100111100011
100010001010
11110101100
10000001000
11011011101
11011010001
1111110111010110
1111101011101000
1111110101010111
1111111001010111
1111101101001101
1111100001011110
1111010100110000
1111010001110000
1111101111000010
1111101110110010
1111110011100011
10101010000
10011001010
10101101110
101000001010
10111100010
10000101110
1100110000
10000010000
10010000100
1110001011
1000110011
11100001011
11001011100
11111001010
11100111
111100
111000000
1111110011111011
110100110
1111110001000101
1111110001110011
1111111101110100
1111101100001000
100101000
1111011101011111
1111010011110100
1111101001101111
1111110011001100
10110101000
101011011110
10110110011
11110001110
11011100000
11000010110
1111110001000100
1111111001011100
1111101010000010
1111110011010100
110100
1111101101011010
10011
101011100
1111111011100011
1111111000111001
1000001001
1111110110100011
1111111000111011
1111011100111110
1111100110100101
1111100110110001
1111011001111111
1111001010101111
1111001111100001
1111101100000001
11010100011
1111110101001110
101000010101
1111010001001000
1111111111010011
10101100001
1111111100101110
1011001
1111011010010010
1111011001110001
1111010010001010
1111010011010110
1111001001110100
1110110110000000
1111011011000100
1111100100000101
1111111001010010
1111110110101100
110101001
10010010100
10110110001
1100
100010001
1111111001010101
1111111110101100
1111010011111110
1111010010001010
1111010001001001
11101000010
110110100
1011000001
1111010000000000
1111011101011001
1111100010001000
1111110100011001
1111101110110110
1111101100011010
1111011101100101
1111010011001101
1111010101111010
1111001111000000
1111010101100001
1111010101111111
1111110111011001
1110
101000
1111110111111011
100100010111
1101001010
1010011110
1111111101100001
10001110001
11010011101
1111010010011100
1111100010011100
1111100010000000
1111101001011010
1010011110
100011
1111110011111001
1111001110101001
1111011000011101
1111100000010001
1111101101011011
1111011101110100
1111100111110101
1111100010110110
1111101100100010
1111011011111100
1111010101000111
1111011110100011
1111110100001100
1111110000001010
1111110001010011
1111110100100001
110000110
11110010011
10000011001
100101110001
10000010111
1110100100
1111100011111101
1111000101001010
1111010010100001
1111101111001011
1111111111001000
1111110101000011
10000001001
1111010011110010
1111011111001010
1111101010100110
1010001011
11110010
1111110110010000
1111110010101010
1111110110110100
1111110011000000
1111101000101011
1111110110111011
1001101000
1111110100001110
1111011101000101
1111100111000001
1111110000
1111001100
10101101001
101001011011
1001100010
1111110111010110
1111110110110010
1111100100101000
1111101000011000
1111111010001101
1111110011100100
1111111111010100
101110101110
1111101111101101
1111111110010001
1010011
1101010001
1111100100011000
1111110100000110
1111110000011110
1111111001110001
1111011111111100
1111101011010001
1111111110110110
1111110111000111
1111100110000100
1111100110001011
1111111000000111
1111111101001111
1100011101
11001010001
11010100
1111110110011011
110111110
10011000111
1110010101
110101000
1111011111111011
1111111010111010
100101110101
111001011010
1011000001
1111110001001101
1111101100101100
10010100
110111
1111101110000101
101010
1111101010110110
1111101000011011
1111100010010011
1111110011111001
1111110010110000
1111101101100101
1111101001010100
1111111001011101
10110101
10011010110
11111101100
10101010001
1011110011
100000010100
1111111100011101
110001011110
111100101110
11010010000
10101000
101000100000
10011011111
1010010111
1111111101011000
1111110111010000
1000011111
1111111100100100
1111110000111011
1111101111111100
1111100111000001
1111100101101011
1111101001000000
1111100001011010
1111011110100010
1111110000000000
1111111000010100
11001000100
11100110011
101001010111
1111101001
1111001
1101100101
1111111010110110
1111111100001010
1000011100001
110011110100
100101110000
1111011001110011
100101100100
1111011
10111000010
10000101011
1111111011000011
1111101000100011
1111101010000100
1111110010110110
1111100010111100
1111100100110111
1111100111001010
1111101111001111
1111100111000110
1111111111010101
10111111
11110100100
110111101101
101011011001
11011010110
101101110
1111101011111100
10010100
110111100
1000110101
10101111100
1011001100
10011100110
1101010111
100001101101
1111011100
100110110110
1111110110111000
1111101000010110
1111101011011011
1111110001000111
1111011100011101
1111100111110001
1111101000000011
11010111110
100011001101
101000010001
111110000000
101110010000
10101110001
100011110010
11111100
10011010110
1000001010
1111110010010100
1111100100001001
1111101111000011
1111010
11111111000
111101101
11001111
100100010
1101001110
1000001111
100001011100
10111110001
11000111101
101000010
101001
1111111100110011
100001001
10000110011
101010011101
1000101000100
101111110011
101110100000
11001001010
110001101
1010010101
1100111110
1111111000011111
1111111101010010
1111111101000011
1111111010101011
1111101110111110
1111110001100111
1111111000110011
100011000101
1111101010110100
1111111110101111
1000111010
101010101010
1010001100100
10011011101
1111001111
1111110101110111
1110111100
1111110111110100
100111101
11001000010
100101000100
10110011011
11011100100
10001011111
10100110110
1001010011
1111110110000000
101110011
1111101000010101
1111101011100100
1111011010000001
1011110111
1111111101
101011100110
1010000000100
111111001100
10001010011
1111111111111011
11011101
10011001
11110101110
101000000
110011
1111111100001110
110111000
11000001111
11001001010
10011010001
1111001100
111111101
111010000
1101101010
11000101101
1111111100011000
1111100011000101
1111100100101111
1111111010011001
1111111000001010
1111111101101011
1111110100111101
11111100111
1111111111101010
110001011010
100100100111
10111100110
1111111011111101
1111111100000011
1111111001001111
11011001011
1001001111
101001010110
1010011001
111100011
10000100
1100100011
10101110011
1111000100
10011111111
10001011000
101110111
1111111111011010
1111011010001001
1111100001001111
1111001111011111
1111010111000110
1111100011011100
1111101100001111
1110011
1010011100
1111101000001000
111111110
101000110111
1111111100101010
1111111100011010
1000111
10101101011
11000000011
11000011100
11000010010
1000111011
10011001001
10000011001
10111001
1000001101
1110010110
100101011010
1111110010
10101010001
1010000010
1111110111111110
1111111111101000
1111010100000011
1111001111011110
1111111101110010
10101011011
1111111000110100
1111011101101110
1111101001010100
1111011110011111
1111111001100110
1111111110111101
1111111100011000
1111111100011111
1111100101010100
1111000000100000
1111111011101001
1111110000011100
11011101
10101000
11011011101
1111110110
1000111101
111000100011
1000000011110
11011000000
1001000110
11000000010
1111110101101010
1111100110111001
1000101111
111110110
1101011111
1111111110111110
1111111000110000
1100011010
1111111000001111
1111110001110101
1111111101101001
1111111110010111
1111111111001000
1111111100101001
100100
1111100011111001
1111011101010101
1111100100100100
1111001101110000
1110111001100101
1111000010100011
1111000001111011
1111010000001001
1111001100101011
1110100110000101
1111010001010110
1111100101001110
1111110000001111
1111011111011101
1111011011101010
1111110111001111
1110000001
10010100110
1111110010101010
1111111000100001
1111110111101011
1111110111111100
1111101100100101
100101100
1111111010100110
100011101
100111101
100001010
1111111101000111
10001100110
10001111110
1111110010010010
1111100110001101
1111100100100100
1111010111010001
1111110001111010
1111001100001001
110101011
1100011000
1111010000101001
1111010010011001
110100001011
10000100000
1111101100111111
1111010100001000
1111001101000001
1111000100001001
1111001101110100
1111110010001101
1111111110111110
1111111100011010
100010111
1010110
