1111110
1111111110010100
11001010
1111111011010010
1111111110110111
11101
1111111110101010
10001011
1111111110100011
1000101
1111111100111000
11001010
1111110110000011
1111101101100000
1111110010011111
0
100110000
10100001
1111111010100101
11101011
1111111011111111
10111001
1111111111000111
1101010
1110101
1111111111100000
1011010
1111111100100111
1111111011101000
1111111011001011
1111111110011110
1111111110010100
1010000010
1111110010011111
1111010111010000
1111011011101001
1111011100010001
1111010110000101
1111001110011111
1110001000100000
1101110111101010
1110001001101010
1111111000000000
1111011101001011
1111010101001010
1110111010100111
1110101000001100
1111110011010011
1101111111
10110110000
1111111001011110
1111110000101111
1111111010101110
1111111101100110
100111111
0
10000110
1111111010100010
1111111101010100
1111111001001101
1111100001001100
1111110100011100
1111110100110000
1111100100101110
1111111011111100
100110011
1100100100
1111110000111000
1111110001000101
1111101111100111
1111111101111011
1111111001000010
1111010100100000
1110111000101000
1110010111100100
1110111100110110
1111111100010001
1111100101100111
1111101111001110
1111010101101000
10111110
1111111010011010
1111111101001001
100101101
1111111101100011
11110001
1111101001
1111110110010011
1111100100100111
10100101111
1111111110101100
1111111011111001
10100010100
10010111110
10001000110
10000110101
10011
1111101001000011
1111111101011111
11011
1111111000010010
1111111001000101
1111000001001101
1110100010001001
1110111111101110
1110111110011110
1111001111101110
1111000101010001
1110111011100100
1111110111010010
101100
100100101
101000010
10110110
1111111100010100
10100001001
111010101
1111101100101101
10001000100
1101101001
1111111011111101
1111111101111010
1111111001101010
100110100
10111000111
11101011000
11000010100
1000101010
1111110101101101
1111110011001110
1111110011000001
1111100101001100
1111001101100101
1110111100011101
1110101111011011
1111001000110111
1111101110011101
1000000010
1111111001100100
1111111110101011
10010110
100001000
11100
1111100001100110
1111000110
1111100110100011
1010000100
1010111110
1111110110101001
1111100001000001
1111011110011011
1111111111001001
1111111000101010
1111111010100001
1111110100000101
110111
1111111001010000
1111101000101101
1111100110000100
1111100011111100
1111110010001111
1111101101100101
1111110000110000
1111011010111101
1111100010000111
1111111111100000
1111110101011111
1001101011
1111111111011100
1111111110010010
1111011101101111
1111010111101111
1111110100100000
1100100110
111000001
10111101111
10100101010
1111110000110001
1111110110101010
1111111010111110
1111101110100010
1111101111000010
1111110011011000
1111111110000000
1111111010000010
1111111110001011
1111110000101100
1111010111010010
1111111100010101
1111111110100011
1111110100001011
1111110111001101
1111100110101111
1111001011101100
1111101000010101
1111110110011011
100010
1111100011010011
1111100010111111
1000000111
11111110111
111111001
1011110010
1111111100111001
1110001110
10100010
1010000010
1111110110101111
1111111010010000
1111111101110000
1111101010011100
1111111000000100
1111011000000100
1111010011100110
1111011100111111
1111101000000000
1111100100111001
1111101010011001
1111100010000100
1111100011001000
1111010111001001
1111100010010010
1110011001011010
1111011000111010
1111110001100111
1011010110
1111101001000001
11111010001
10011001011
110111001
111
1111111111111111
101010111
11010110100
111101011
1111110111111010
1111111101001110
1111111101010110
1111110111100000
1101100100
1111100101001100
1111010000110011
1111101010110100
111101
1111110010110010
1111110001010110
1111101101011100
1111100010010011
1111011011000100
1111111001111001
1110101111001100
1111100101001111
1111111110111111
11000000000
101100110
110101000011
11001001011
10111010000
1111110111
11110000010
1111111110101001
111010101
111001010
1111111101101000
1110000
1001101100
100111110111
111110101001
111101011000
111000000000
100100101001
10110101010
101100111011
110101001
10111010011
100001001101
1111111101111010
1111100101010011
1111001110011101
1111010010011111
1111111100100101
10111101001
1111110010101010
110101011010
1111111010110110
1111000101
101001110100
11101100010
1111111100011101
1111110110101101
111000111
1111111101111111
1010000001
10010011101
1010011100111
1100001110000
1011010101111
1011110110001
10001111010100
10100010100100
10100010100001
1100101110101
1010100001011
10010001100110
1001010101001
1000100100000
1111100110111011
1111101010001110
1011101
100001000101
100101111100
1111101010
1111011101001000
111110100
1110111111
111101001
10011011
1001000
1111101100101110
1111110110011001
100001000
10101101011
111010000011
11110000000
1001001001
1111000001
101001100011
1000000101100
10001110011110
10001100000010
10001101101100
10011111000010
1011110011101
111110110111
111001111
1100010100
11100100
1111111100101001
1011010011
1111001100011110
1111100011010100
1111111000100011
1111111110100111
1111111110110011
1111110000110000
1111100110001111
1111011110111010
1111100101000100
1111110000001100
1011101000
11011011110
11100100101
1100100100
11001111
110000110
10111110110
11001111010
1011011101010
1101001100010
1010011000011
1010000111000
110001001100
11011000011
10011010010
1111111001101101
1111101011101101
101000011
1110101110001101
1111011001011000
1111001111111101
1111011011101110
1111100110101011
1001000010
1111111111000101
1111110110000100
1011000100
1111111110100101
100111100
100101010010
11100101101
11011101110
101101011
1010001101
1111110000101110
1111111110110111
1111111100101000
1101010101
1100001010
100101111100
10110100110
1111011000101101
1111111110011001
1111100001100110
1111111001010011
11010110010
1111100101011001
1111100010101111
1111011001110010
1111100101000001
1111011100000010
1111110101010010
1111111000111100
1111100101110000
1111011
11011110101
110101111010
101100000110
10110001000
10011100110
111001011
1111111110110001
1111101011110111
1111101011110000
1111100110110101
1111100010110001
1111110010011101
111010011
1111110100000111
1111101110111001
1111100011011100
1111100011011010
1110000101
1111101011100010
10101010
1111100010010011
1111110101111000
1111101010101011
1111100000010000
1111101011000001
1111011101010110
1111100101101011
1111111011010111
100001100100
110101100110
111001001101
11010010100
1111111110001100
1111101010100100
1111101111100111
1111100101100110
1111100110000100
1111011001001100
1000100000
1010010000
1111101
1111101100010000
1111111111001100
100100111100
1000110101
10000011010
11011111000
1111101010000101
1011100001
1111110100101101
110110011
1111101101111001
1111110010000111
1111100101010000
100011100
1010111110
10100111000
100110101001
100001010010
10001011011
10101111111
1111111111010011
1111110111101011
1111101011011011
1111110111011001
1111101001110001
1111101100100101
11001011
1111111111111001
1111001101110011
1111101110001000
1111010111
1111111111110000
1110111001
1111111100111010
1111011111011111
10110001
11010001
1011011101
1111101011010100
1111110011111100
1111101101011111
1111111001100101
1111110100100001
10011101000
1000001110101
101001001111
10011100100
11011101111
1000101111
1111110001110000
1111011011010110
1111110110011111
1111111100100100
1111100110010111
1111110001100011
1001111011
100111110
1111111100000000
1001011
11100100010
1111110101111011
1010
1111010100001000
1000010111
1111111010101101
10001100001
110101010
10101010000
1101101111
1000001110
11000011110
110001000000
111000000100
101111001110
100100111010
1001001
1111110010001110
1111110110101011
1111110111000110
1111101101011000
1111111011000101
1111110100000011
1000011010
1010000001
11011
11010011100
10101111001
1111111111000101
101001010
1111110111011101
1111100000101010
110100001
1110010000
1111111000010100
10001000011
1100001000
1110101100
11011010011
1010011101
10101110100
100111000111
11011111100
1000100100
1001001111
1111111101100100
10111111
1111111010011001
11001011
1111111101000001
1111111100100100
1111111000110010
1100110000
1111010011111000
111001001
101000001
1111111011011110
11111001000
1000001000
1111111100011100
1111110110100101
1111111011011010
1111111110100000
1000110
1111111111000100
1100010
10010110011
1111100110110001
1111110111101111
10100
1011001011
1111110110010110
10101100110
10010000011
1111111001101010
1111111101000101
111101010
1111111111100111
1111101011001001
1111111101001101
1100000101
1111110001001100
10011010
1111110011011010
100010000
10010001100
1001001100011
1111110011000110
1111010011000100
11001110
11101110000
1111111111011000
10100100001
1111111101010000
1111111010011111
1111101101001011
1111101000110100
1111110101010111
1111101011101111
1111111011000100
11000001110
10000110
1111111100010101
1110100011
11011
111010111
1111110001101111
1111101110000110
10010001
1111000001110000
1111100001011100
1111110011101000
1111111111011100
1111110011
110111001001
1010100111
1111110010101101
110100010
10001011011
1111000110
1100011001
1111111001001110
1111111110011010
1111101101110000
11011010
1111111100101000
111001011
1111101000011011
1111110110111000
1111111001001000
10100001110
1111101101
1111111010011111
1111101011101100
1101001011
1110111011000000
110011011
1111111011101010
1111010111001101
1111110111000101
1111111010100111
1111111111111111
1011001100
1111111110000000
1111100001111110
1111101111101011
11110001
1000111
100110111
1111110000100011
1111110001111110
1100101
1010110110
101100011
1000101110
1110111
1111111110001101
10011010
1111000010
1110110001
1100111100
1111110001101011
1001100101
1111000101011111
1111101110101000
1010010
1111010110010101
10101100
101011001
1111111110001101
1111101111
1010111000
1111011101001111
1111101101101100
1111101110101011
1111110000110010
1111101000101101
1111011100000100
1111111011101111
1111110110000100
1111110111100101
1000000101
111000011
10101010
1111110110000110
1111010011101000
1111001010011110
1111110111000010
1111111111101101
101001101
11001101
100101010
1111100110110010
1111011010100000
10100100100
1110100
10011101
1111111011000100
10010111
1111100111111011
111111110
1111110010100111
1111100100101011
10001
11110000
1111111101100110
1111111110100001
1111011010110001
1111011010100011
1111101100010000
101111101
1111110110010110
1111101001010101
1111101001100101
1111011001010111
1111100100010110
1111111110000000
1111111100100100
1111100000111110
1111001001001010
1111011010110011
1111111011101111
11000001
1010100
10111
10011110
10000
10011100
11100010110
1111010010
100100011011
100011001
101101010
10101110110
1111111000001011
11011100
1111111100011100
100011101
1111111101100001
1111011110010011
1111101100001001
10001011110
1111111101101110
1111010101100010
1111110001100111
1111110111110011
1111011010001010
100000010011
1101001010
111000001
1111111110100010
10010110
1111111101001110
1010
11111101
111111
1010111
10001110
1001100011
1110000111
1101010011
11101010110
11100110100
100010001010
11100110101
100011110011
1000110100110
1000010101101
1000001001111
110000001101
111011101011
110000001101
1010100001
1111110011100100
1111111000010101
110110000
11001101
1111111011001001
1111111011110001
1111111011101001
