100100110
11100000
100011
11010110
10110110
11101110
1111111110000001
1111111110010011
1111111110110101
1100010
1111111101110111
1111111110001100
1111110101101101
1111100010110110
1111110011010111
1111110101110001
11001100
100000000
11101100
1111111111111110
1111111111001000
1111111110001010
1111111111010101
1110101
100010100
10011001
1111111111100110
1111111010110110
1111111111011100
1111111011011110
1111111100000101
1101010
1111111111011000
1111101101110110
1111010110010010
1111001010110001
1111001110011000
1110111101111000
1111011101000110
1111011111010101
1111010111100011
1111010101000110
1111110010101000
1111011000000100
1111100101000011
1111110000101010
1111111010010000
1111110011100011
1111100101111000
1111100111000100
1111011110100110
1111011111000101
1111111010101100
100101000
100001101
1111111100110111
1111111111010000
1111111100101101
101011001
1111100101011001
1111101001100110
1111111010011100
1110111111110101
1111001101110010
1000101
1111100010100010
1111001000111111
1111011110100110
1111101001101000
1111001111101111
1111011011011111
1001000011
100010100110
1010010010100
1110010101011
1011100000111
1101010111111
110101100001
100011110
1111101101011010
1111011100110011
1111010000001010
1111111010101101
1111111010111010
11110010
1111111100110011
1111101010010101
1111100011100111
1111101000010100
1111101111011001
1111111001101111
1111010100110100
1111011101100110
1111100011010111
1111110011100010
1011100
1111010001000001
1110110011101110
1111100011100111
1101100010
11101001000
111111110100
1010010010000
1010111000110
1000100011111
11001111
101111000110
1111100101010101
1111011010100110
1111001111110010
111100101
1111111110011000
11111001
1111111000010000
1111100100010101
1111011000010010
1111111111001110
11001010111
1111111011110110
1111100111100100
1111100111011010
1111111000011100
1111100000111111
1111101111000100
1100000111
1111110101011110
10010001111
1111110110
101101010101
110111000000
1000001000100
1010100111010
1111101011000
10001001100001
1000010100101
10011111111
110010100100
10011100001
1111011000001111
1111101000000001
10011
1111111110011001
1111101100000010
1001111100
1111010111110110
1111111101100011
1111111101110001
1101111001
1111111100011111
11100110
1111110110100001
100110001
1010001011
1111011101000011
1111101111110110
1111101101100011
11111011000
110011001010
110100010001
10110001010
101111100101
1011011100100
1001110011101
1100010011111
1000010000001
1111111000100010
1101111001
100000
1010111
1111111101101111
10110111000
1111100101111100
10001101010
1111110101111010
1111110011010101
10000110100
1110010111
1011110000
1111111000010000
1111101111011111
1111110010101111
1111011111011100
1111010100111110
1111011110010010
1111110000011100
111001101
1111110010010100
10000011100
101101100000
100101100010
101001010100
1011000010001
1000000000000
10001000111
1110010100
1111110000100010
1111111100111010
1111111011011111
1110100000
1111011000110111
1111110001111100
1111111110100101
1111110000010101
1011100001
10101001010
111111001
1001101001
1101100
1111110110011111
1111100010011000
1111001000010111
1111001011010010
1111101001011000
1111101111001111
1000001110
11000010111
101011000110
10111001010
10011100100
101011100100
111101100101
110000111
101110101011
1111110000100100
11010
1010011101
10100100111
1111111100101110
1111101101011101
11001111101
1111111000000111
1111101000
1111110011
1011110011
101010010
11000100011
1111111011100001
1111011111001001
1111000011100011
1111011101001000
1111100110000001
1111110000101100
1000101110
10001110100
101110011
1110011010
1110000011
101111010100
1001010000110
111110101000
101110000010
100011110111
1111111001010111
1111101000000101
10011100010
1111011011010000
1111111001100111
10011001010
1111111101110100
1111111111001111
1101010001
10011101001
1111111100111000
100
1111100010100011
1110110111101011
1111001110011000
1111011010000000
1101001000
100100011
1100010110
11100010
1011000111
101000000011
11011101101
1001000000101
10111111001
111011110011
10010011010
1111101100101100
1111110100100111
1111100101011100
1111101110110101
1010001001
100010010011
1010001011
1111111010111101
1111100001
1111111110111010
1001011011
1111111000000110
1111100010100001
1111100011010011
1111010110000101
1111010001011000
1111111111100011
10111100110
10011001011
11101101
10100001111
10000000000
1111111010011010
10010100101
11001111101
11001100001
110001100
101001101
1111010111001011
1111110110111000
1111011111101000
100001010
10010000110
1011100110
1001110001
1011010110
1111110011100101
1111111110011011
1111111001011101
1111110100111011
1111111100010010
1001110010
1111110111010110
1111111110001011
101111101
11101010111
1111111101111111
1010101111
100110100
11010101
10011100
10001111000
1111101100110010
1111100001101110
100011000101
1100010111
1111010011000010
1101
1111111101111111
10101010000
1101000110
10111011000
1111111111111110
100001111
1111110111011011
1111110010010111
1111101001110000
1001100010
11001111001
10110000110
100010111010
1111111000000011
1111111111010101
10001100111
10000100
1111111101111000
1111111101101101
1111111101100000
10110001011
1111010000
1111111001100000
10010011101
1111111010000100
1001100
1111110001111010
1111111011110100
100111000
1111110101010110
10010000011
1111110110110100
1100100
1111111000000101
1111101100000101
1111111101001111
1111110100100111
1010001101
10101100101
10110101100
10110000111
1111111111101101
1000000110
1111111011001100
1111110100101100
1111101011
100100001
1011001
1010110010
10011100
1111011110101000
1111101101101000
1111101010111100
1111001100101010
1111111101101111
100000011111
1011110011
1111110101110100
10000010000
1111110010101110
1111010
1111100101100100
1111101010101000
1111110000001100
1111101011101000
1111101100110101
1010001111
10001001000
111101100
100101001
11001010
101011011
1011101101
1000010101
100000000
1111110110010110
1111111101100010
1111111011100001
1111101011011101
1111101100101111
1111110110111000
1111011001100010
1101100110
11000000111
100111100
110001101101
10100000110
1111111000001100
1111000001011010
1111011011100000
1111101011000100
1111101110010010
1111111011100001
1111110001011101
10001100
1010110
10010101110
1011000111
1111111011101101
1111111101001011
1111111011010011
1111101011010100
1111111110011110
1111101111111001
1111111000111110
1111110011111110
1111110100110110
1111101100011110
1111111111011110
1111101011110000
10010000111
1111101101101010
1111011011010100
10110011101
1010010111
1111110011000100
1110101010111001
1111000011101001
1111101000101001
110001001
1111111100111110
1111111101111011
1010000001
10010000101
11010000110
111111101
10010000011
1111111001110110
1111111100100000
1111110100111100
1111100110000110
1111100001010100
1111110101101101
1111011101010001
1111111110111111
11010101111
10000100101
1111110001010010
1111110001100001
11100010
1111011011010101
1011010111
110101000
1111101110
1111010100000111
1111101000010101
1111100001000111
11110111
1111110001111111
1111110110110110
1011011100
1000100000
101000001001
10000001000
1111111110111110
1111100100110011
1111101001000111
1101010001
1111110011001100
1101010
111101100
1111110000101110
100011101
10000001001
1111111011000000
10010010101
1111101001111010
1111010101101001
1111101101100111
1111110010010101
1111000001
100101111011
100111101
1111110100000010
1110110101
101100011
1111110010110011
1111011101101010
1110110100
111011111011
111001111001
101011110
1111110011001110
1111011110010100
1111101111001111
10000010101
101011
1111110011010111
1001001011
1111111110000001
101111000
10001111001
101010111
1111101101000111
1111111111101101
1111110100100001
1111101011110011
1111110000010101
1100110001
101001100001
10000110
101000010001
101010011111
101111000001
11001100000
100001101001
110010000111
101100111110
1110101011
1111110110011001
1111111101010110
1111101110000011
1111111111011001
111100101
1111111000101000
1111110110001110
1011110010
11011101
10110100101
101
1111100010001110
11100100110
1111110001000100
1111111110011000
1111101110110011
100010110
1111111110111100
111110111010
10101011001
101001110100
10010111111
101101011110
11110001011
110010101000
111001110101
100101001110
1111101111100010
1111101010001100
110100101
11001010
1111101110001010
1111101100101000
1111101001000111
1111110001110001
110011011
101011011
1010101110
1111011111100110
1100011100
11100110100
100000100
1111110110011000
1100010010
1111011010000010
1111011110001110
1111110010101111
10001011111
10000100100
10100011010
10100000000
11001010100
11010101110
10001111100
1100110001
1010001011
100101101
1111111110010111
1001
11011011001
1111111010000111
111001
10001100000
1011001001
101010010110
1001010100
1111111100000010
11011011111
1111101011110101
1111100011100010
1111110111100001
1111101110010101
1111011100110001
1111010100100111
1111011000011011
110100000101
10110011100
1100010111
1010000100
11010100110
10001011101
101001110
110010010
1111111100011101
1111111000001101
11010110
1011100110
1110011001
100111011
1000100111
101111010
110110100
11010101001
1101011010
1100111001
1111100110111110
10111000111
1111100001011101
1111111011111111
1111111110100100
1111110010001101
1111101101011011
10010100
110110011000
101010110110
101000101000
100100100110
10101010111
1111111110111100
1111110101101001
1111111010000101
1111110101100000
11100
1010101001
10111010001
101011101
11000100101
1000000001
11010110
1110111100
1111111101000001
11010010
1111100010110000
10011100000
1010110111
1111111111111110
101010000
1000110
1111010110011101
1111100000010011
1111111111010101
1111100111
100111101101
100111001101
11000000110
1110111001
1111101101100111
110001100
10011000001
1001110101
1111111101100010
1111110110010100
111010110
1111110101011000
1101001100
1111111011
1111110110101111
1111111010000011
1111111111010100
1111110101000000
1111111110000101
110101101100
1111100000101010
10011100
11000100
1111111101000000
1111110011001110
10100100011
1111111011001011
1111110110110101
100001111110
1111111001111001
1111011110111110
1111010001001111
1111100101110010
1011000001
1110110011
10010001000
111000001
10000000000
1111110111001110
110110111
10010001111
110001000
1111111000010110
1111111100110001
1011011110
100001010100
1111100010001111
1111111010111000
1011100001
101000
100001
1111111101001101
1111111111111101
1111110111100110
110001010
1111100010001100
1111000011101000
1101111
1111101110101011
1111100100010110
1111010100100001
1111011101110111
101101010
1111110101110010
1110101111110111
1110101000000000
1111101000111100
101011000
1111111001011000
1111110110000101
1111001001000000
1111001000111010
1111001001101001
1111001111010001
1111110110101010
1111111001110010
1111111111011111
100001000
1111111110001100
1111111101101000
1111111110001110
1111111100110011
1111110111111111
1111101101011000
1111100101001010
1111100000101101
1111010101001001
1111001010000000
1111011011001100
1111100000001110
1111110011110001
1111011001010100
1110101001100000
1111001100111101
1111001110100110
1111000100010010
1111010110010111
1111100111011011
100000110
1111110110011110
1111110101110000
10100101
11100
10000110
1111111111001011
10101
