1011001
1111111011011100
11110
1101101
100101
1011011
10100100
1111111011011011
1111111111000000
1100111
1100010
101000000
100011001
1010000000
1111111100011000
1111110110011100
1111111110001100
1111111110001110
11000000
100101110
1111111100110000
1111111101011000
1111
1111111110010000
1111111011010001
100000111
1111111101001111
101001111
1011111
11000100
1111111111010100
10101101
1111111111100110
11110111100
111101011111
1001000001001
1001111011100
1110111100000
1101000001100
1101111010110
1100101001010
111011001011
1111010100000101
1111111101100101
101101101
100111101101
1010100001111
110111011011
111011100001
110000110000
100001110110
11111111100
1111111101000101
101010000
100010
1111111100110110
1111111101110111
1111111110100011
10011100
10100001010
100001101010
1101011001
100000100101
1100010010011
10000110111
1111111111100110
10100000
1110110001
1111101100110001
1110111101011100
1111001010110100
1111011101100000
1111101011100001
1111101000001011
10110101011
101101000111
100000111
101000001010
11101000111
1101111110
1000010010
1111111100100011
1111111011001011
1111111110111010
1111111110100110
1111111011110111
1111101011101111
10011100111
1100011101
1111100011011101
1111101011000101
1111110101010001
1111110101011111
1111010011
10110010111
1001000
1111111100000101
11011100101
10111011
1111100011011001
1111001110001111
1111100000000010
1111101001000101
110110100
1111111111000011
100110011110
1111110110011010
1111101001001101
1111011110110110
1111110100010101
1111110110111100
1111111110001010
1111111100010101
1111101
1111110100000111
1100001000
11001101
1111011111111100
1111110010111000
1111100111010011
1111101011111101
11000100100
1111110001001000
1111100010111100
1111100110000100
1111110101000100
1111110010110011
1111010101001000
1111000011000110
1111001001111110
1111100010111000
1110001110
1111001111011011
1111011111010110
1111101010110000
11110100000
1111001001101011
1111011010011010
1111110010001100
10000110101
1110010
1111111011110011
1100011111
100001000
1111111001110101
1111101010011110
1101
1101110100
1100001010
1111101011110100
111100111
10001101101
1111111111011011
10011100111
1000111001
1111101000111011
1111011100011001
1111011100001111
1111101000110000
1111110000000010
1111011100000011
1111001111111010
1111011001001111
1111010110011011
1111101100110110
1111100110011100
11001
10100110000
1111111100110100
1111110110001010
1111110001111000
11100010011
111000010
1111111110100100
11010000100
1011010011
111110000
1111011011111010
1111111000111101
10110000
10001000
1110010111
1000000
1111110111011011
1111111001000111
1111110010010100
1111110101101110
1111100000001100
1111100010100010
1111110010101100
11111010
1111101010111001
1111011001010111
1111101100101001
1111001011001110
101010001
1111111100001101
1111100000011111
1111100010001111
11111101000
100001101
11101000001
11110011100
101010001
1111011011111001
1111101010110010
11011011101
10110000111
10000001001
10100110110
100011110
100001010
1111110000001110
1111110110101100
1111110111000011
1111101000010110
1111101101001110
1111110011000010
1111111110001101
1111101001000011
1111110000101110
1111111000011110
1111010001010100
11101100101
11110001101
1111110111111010
1101000111
100001000000
1111100111111011
100001101
1111111100001000
1111101100010010
1111100111010111
111001
1111111100001011
1110011
100011000110
1011010001
1010000011
100100011
1111111111101001
10100100
1111101110101010
1010010000
1000010111
1111111010000001
10010110
111011110
100111111
1111101101111010
1111001011011110
1111111101001100
1111101100000111
1111010110110101
1010100111
1010111111
1111101110011001
1111110101110110
1111100100110001
1111100001011101
1111110001100110
1111111000000110
1111111111001001
1111111100111001
10101000001
100110100101
10101000010
1111110111010000
1111110000010111
100000010
11100110111
100100110110
11000011011
100100000010
1111001101
1111001001
10010011110
1111110010111000
1111001111011101
1111100011000110
1111101001010011
1111011001100011
1111101111110100
100000001110
10010000010
1000000101
1111111101001010
1111100101110010
101001
101110111
1111111001100000
1111110110001101
1010110001
11110011010
100010000001
1011111001
1001010
101100001011
101001010100
10010010010
1111100010
1001101111
11110111100
11110101000
11111110011
1111010001000100
1111100100011110
1111011011001000
1111101111110110
100110000111
1111101001001001
1111101011101110
1111101010010000
1111110000001001
1110011000
1111101011110011
1111111001001000
10100101000
1111101111111010
1111101001000111
1111101100101011
100101011
110100
1111100101100001
1111111001111100
11111110
1001011001
1101110101
111001110
100111111011
101100010111
10111001101
1000001011100
10010001111
1111110100010010
1111011010011011
1111110001110100
11110100
1111101100011101
1001001101
1101
1111111100011011
1111110010001101
10011100
1011011111
1110010010
1111110101011011
1111101110100000
1111110000111001
1111111111010001
1111011100100000
1111010000011101
1111100111101000
1100111001
1111111011010000
10001110100
10000000110
10101010000
101111011110
110100100010
1010000000111
101000011
1000001111
1111101000000000
1101000011
11101001000
1111111011011101
1101010100
10101001000
1111110110111110
1111101101101010
1110011
1111101
11001000101
10101110010
1111111110000010
1111111100001111
1111101001010100
1111010100101011
1111011001101010
1111010001000000
1111101100101001
1111110111010101
101100100
110010
1001101100
10101101010
101000111000
10100110001
101000100
1000100101
1111111001110101
10001010000
1111101101101011
1111011100000101
1111101101010000
1111110011110000
10000100011
1111111101110000
1001000000
11001110011
101000101001
100101010111
11100000001
1111111101001010
1111110111011101
1110111100011100
1111000001000011
1111010000001111
1111101110011100
1111110110000010
1111101001001001
1001101011
1101000100
10000011101
1000111001
1111110101110001
111111101
1111101101001011
1111111111011101
1111110001001001
1111110101010011
1101011010
1111101111101101
100000110
11000001
1111101100111010
1110010010
10101011001
101010000000
100111001101
10010100010
110011110
1111010110101001
1110111100110101
1111000010010101
1111011010110101
1111100100000100
1111111100011001
1111110101101011
1111111101001011
100111111
1111111010
10110001100
1101010101
1111111010000000
1111011101101010
1111110111011011
1111100010111110
1111011011100100
1111111111001000
1111101101101100
1100000100
1001101000
11011110111
101100000000
10111011110
10010000010
101111101110
110001101011
1111110001000100
1111000010101101
1111011101011111
1111101010011110
1111100011111010
1111101101111001
1111110001000011
1111101010100000
110100
1111111111011101
1111111111001010
111111010
1111011010011101
11001101101
1111101010100110
1111111101001111
10110110
1111010111010010
100011100
1111101011101110
10100001100
10010010111
10101111100
10110010001
1111111101100110
11010011101
110011011101
100001111100
1111110001000110
1110111111000101
1111010111110100
1111110111010011
1111111000001000
1111110101111000
1111101011100001
1111100111110011
1111110110101101
1111111011101111
1111110001111000
10011111010
1111111101101010
1111111100011111
1111101101100110
10100000110
1111011100010111
1111100111101111
1111101100100110
1111011111101001
111100001
1111111010100000
110101101
1111000001
1101011101
11001101001
100101111110
10100111000
1111111010110110
1111011010110001
1111101001100111
10001001
1111110010001111
1111100010001110
1111011111001110
1111101001110010
1111100011010101
1111101000010001
10001000
10000101011
1111110010100111
1111100100111110
1111110100000101
1111101110010010
110110001
11010011
100111100
1111100100010111
1111100010011011
1111101001000110
11011101
1111111100001101
1001011011
1010010001
10011001001
11001000011
10001111101
1111110110101110
1111110000011101
1111110001000011
1111100010111001
1111100111101010
1111011100110100
1111101000011000
1111111001100011
1100000
1100100011
1111100000000101
1111101001010010
1111010010100011
1111010110100000
1101000010
1111111010111101
11110100111
1111000010
1111100101111011
1111101011001001
11000000111
1000100100
1111111111100101
1001101101
110110000
10001110101
10000101110
11000111110
1111110000101101
1111101010000101
1111101101011001
1111101000000111
1111011101001111
1111010010101111
1111100100001101
10011101
10010100011
1111101101001011
1111010010010000
1111110100010010
1111001001111001
1111010101000000
11111100
1111110
1000000001
110101011
1111110010011111
1111011101110001
1111110101011010
1101001001
1101100111
1101010000
1011001010
10011101101
1001100001
1111110001101011
1111110101011000
1111100110111000
1001001
1111110100110010
1111010111010001
1111010000010110
1111101111011101
100110110
1111101101011100
1111110111000001
1111010011101110
1111100110110011
1111111000110000
10000010110
1111111101100100
10111110
1111111010110111
1111101001010001
1111100001100110
1111011001110100
1101110110
1111110
1111111011101111
1100001
1001110000
10010110011
1111010101
101110000
1111111111110110
1111111000000101
101010101
1111111101011000
1111010101100100
1111011110101110
1111111010100010
1111110101110010
1111110100011100
100010
1111110001111110
1111100101111010
1111111001000101
100010110100
1111111010101000
1111111100111000
1111111011011011
1111100001111010
1010010001
1111011100000001
1111110000111000
1111100101001110
101011000
1011100011
1111010100
100011011110
10101110011
1101100111
10111101
111111100
110001
1111111100100110
1111110001001111
1111101011101110
10000100101
1111110110001001
1111010010001011
1111100000100111
1111110100001101
1111110110000010
101011001011
1111100001001010
10111110
1111111101111100
111110
1111011011100111
1111001101101111
1111011100100000
1111001010000010
1111011011000010
1111101101110100
10000111
1110011100
1101101011
1011001010
111100000
101010101
1010001011
1111111110011000
1111111000111000
1111110101101110
1111111110110001
1111111010001010
1111001100011010
1111011011101011
1111010110011101
1111011001000011
1111110011100101
10000110000
1111100111010001
100110
1111111100011000
10011001
1110010010
1111010110000111
1110101010100111
1110001011001111
1110101000001100
1110110010110000
1110111101001000
1110111010010111
1111011010100000
1111011111100101
1110111111010111
1111000111101010
1110111110001011
1111011010011011
1111000111100101
1111010011000100
1110110111001000
1110010001101000
1110011011100010
1110110000001000
1111000110000001
1111001101101101
1111000110000101
1111110100111100
1111111111110110
10000101
101000111
1111111111011011
10100000
1111110110010101
10011110100
1111101011001110
1111001101110100
1111000011011101
1111010100011101
1111001111000001
1111000010001010
1111110000010110
1111111110010011
1111110011011011
1110111100010010
1110111100110111
1111001000100101
1111001011000110
1111010111000010
1111111011011110
1111011010001111
1111000111110100
1111011110000010
1111010011111100
1111111011011111
1111110010000100
1111111011000011
100011111
11101111
1111111011010011
1101001
1100101
1111100000101101
1111010011000011
1111101001111010
1111011001110110
1111010110001010
1111101010101010
1111100000001010
1111101011010101
1111100001011100
1111001111001110
1110110010000111
1110111001001011
1111011101101110
1110101011100110
1110111011011101
1111110111110000
100110100100
1111111101011011
1111100110001111
1111011110100110
101011001
101011010
1100110
1111111100001110
