100011101
1111111111011101
1001100
11100110
1111111111001011
1111111101011011
1111111100100111
111110
100001111
11101000
1111111101111001
1111111011010010
100111110
1011001010
1
1111111010011110
1111111011111100
1
1111111100110011
1111111011110111
1100001
1111100
1111111011010001
1111111110011011
1111111110111001
1111111110000110
1111111101100100
1111111100111100
1111111011000000
1111111011101010
100010111
10010100
110100001
1111010001
101100101100
110011001101
110000101110
110000100100
101000100111
111001101111
111000111010
101110101011
1111110110010100
110100010001
110000000110
1000011111100
1011110110010
1001000100101
1000111010010
110001011101
101100010011
11101111100
1111111111111000
1001101
1111011
100101011
11011001
101011011
111000110
11110100101
101000111111
1000100
110000000110
1001001011110
10101101010
1101111000
1111111001100001
1111100110001100
1111100000001100
1110110100010111
1110111001111101
1111100010011101
11011000
1111100011100101
1111101110100100
1001000011
1111110100010011
1011010100
1111111110010000
1000010000
111010001010
11100010110
1111111100101011
100101010
1111111100111100
1111111011111110
1111111000010010
10100110000
100011011
1111110101110010
1111111001011001
1111111100100011
1111101010100110
1111100001000011
1111101000100110
1111101101110101
1111011101011001
1111110100001000
100000101
1111111000110000
110010011
101111110
1111111100
100100010101
1001010000
10100110010
1111110010111101
11001011111
111
11000111
1111101000000111
1100
1111111100100011
1111111110111101
1000111
1111100101110011
10110011001
1111110101110010
10000011
1111111100101111
1111100001010001
1111111000111010
1111101111011011
1111100011010111
1111011000000011
1111111110001100
11100
1111110011010111
1111101010100100
1111110111011000
1111111111011101
11100010011
10010011000
11100111
110001000
10110101001
1111100100010010
1111101001111100
1111001101111001
11010001110
11001110
11011111
100000010110
1111101000101010
1111111001010100
1111010101011110
1111101010001101
1111111010111110
101101011
1111101001110001
1111111001000111
1111110100100010
1111110100011010
10001100110
1000100110
1111111000000001
1111111000010100
11001001
1011001
1100100011
1000101111
1111111101101000
1010100001
1111101111011110
1011010010
1111011001110010
1110111010000001
1111110010111101
1111111111111001
1111101111010111
1100000010
1100110111
1111101010100011
1111110001000010
1100010001
1010000
1111110010010100
1111011111100001
1111111100000111
1111111010001011
1111111001100011
1111111100100011
1111101101101111
1111100100100001
1111101010000110
1111111110000000
1100000
1111111110111011
111010101
11001100001
100000110000
1111111101001101
1111010100101000
1111000101110011
1111011110011011
1111111101110001
1111111011011000
1111000110111100
10000000111
10011010000
1111110111001011
11000110111
11000110001
1111111100111100
1111101001100101
1111110111010001
110001011
1111111011011111
1111101011111001
1111011101100110
1111010010010101
1111011110000111
1111101010010011
1110010101
11110001001
10101111001
10001101011
1111110010110000
1111111110110010
111001100
1111111100001001
1111100100111111
1111001001111111
111011101
100010110100
110101010
11100010011
10011101110
1111101000111110
1111101110100011
1111111011101101
1111110010000100
1111110110011111
1000011
1111111011011101
1111100101111111
1111101110000100
1111011011010000
1111101011101000
1111110101011100
1000101100
10000010010
1011111
1111111100000100
1010011100
1111111010101000
111011
1111111111111000
1111111101010111
1111001101000110
1110001110010011
1111101010111011
1111110011110010
1111011010100001
100011110101
101011101
11111100
1111110100001101
1111101110001110
1111101101011111
101011111
1000001111
1111110110011011
1111011010101100
1111100000110101
1111111000100000
1111101010100000
1111101001011010
1111110001001000
1111111001100100
1110101
11001011110
1111000001
1111110101110000
1100000
111110111
1100011000
1111011010010110
1111010001100001
1111100110010110
1111111001111111
1111011111001001
1111101011111100
1110110
1111110011011011
1110010011
1111110111000111
1111110001010011
10010101111
1000010010
1111110111100011
1111111011101111
1111110101001000
1111100001000001
1111110110111001
1111101111010101
1111110001001100
101111101
1111101111110111
1111111010011010
1101100
101110000
11100000100
1011001011
1111111000000011
1111100001001000
1111011011101111
1111101111110101
1111110100010011
100000110001
1111111111101011
1111000101111111
1111100100010100
1111111110100101
10101101111
10010111000
1010111010
100
1000110110
1111110010100110
1111100110100100
1111110111010010
1111110100110000
1111101000010001
1111100101011000
1111001001001100
1111010101011101
1111101110001111
1111111100111110
10111010011
1001110111
1111111010111011
1111110001001110
1111011010010111
1111011000110110
11101110
1111111001111111
11011101101
10000010010
1111001101100110
1111100101001010
10001101000
10000101110
1001001100
10000110100
11001100100
1011011010
110110011
10101111001
1101000101
1111101010100110
1111001100011100
1110111111011001
1111011010111110
1111111110101011
1001101
1010100111
1001001
1110010111
10111000
1100100110
1111100100110001
1111001011011101
1111111111111011
100111000
100011101111
100001011111
1111110101000000
11001111100
10100011100
1001000110
11001110000
10011111001
11110010111
100100111010
1100111000
1101111101
1111100111010100
1111011001100111
1111000100000010
1110111110010011
1111101011000011
10101100000
1111111010111001
1111100001101011
1111110101100011
1111110100010000
110110000011
1001110000
1111101010110111
1111101000100001
1111111110111111
111001101
1111111001111110
1111011001011101
1111100000100110
1100010101
100100101110
10001101100
11110101100
1101001100
10101001111
110110101
1110000111
10110111
1111110010101010
1110111011000110
1110110010100000
1111001111111000
1100101011
10000110000
1111110001101101
1010100001
1110100010
1111111111000111
1111001
1111110111100000
1111101010011111
1111111011100001
11000110101
1111111001011100
1111101100100001
1111010110011010
1111010110001101
1101011011
100001000001
1111111011111011
10010010101
1111110101110010
10100111100
10000001010
1111111110111010
1111101011010000
1111000011111101
1110110011101110
1111010001011010
1100100001
1000101000
1110010000
10011110100
11100000001
10011111010
1111111101100101
1111111011
1101011100
111011111
100011011
1111110110000100
1111111100110000
1111100010000001
1111010111011000
1111010101001011
11110010011
10101101110
1010101001
1100000001
11000101101
11010110111
11001101010
1111110011101001
1110110000101010
1110011001111011
1111001000101010
1111111011001010
1111111110110011
10011010111
1100010111
11101101111
100111101001
11010011111
1101100010
1111111011111011
1111110001110111
1010001110
10000110101
101001110
1111111010100011
1111101111110101
1111101100000111
1111110111100001
10011010111
1111011111
10000100111
10101111010
10111001100
110100000101
101010000000
1111010010111111
1110100111111101
1110111111010000
1111100000111000
1111111101110001
1111111101100110
10001101
1001010101
1010000
1110110111
11001111
10110001110
1111111010100101
1111111101000100
1111100010100001
10011100110
10100011110
1111101100000011
1111110111000011
1111011110011000
1111110000101010
10010111101
10011111110
100011100
10111011110
10111100010
101011111000
1001011110
1111000101101011
1110100110101100
1111010000010101
1111100110110110
1111111000001101
1111110111111110
11111111
100101000
101101
1111111110100001
1111110010101001
110001011
1111111001111100
1111111011101001
1111101011100001
1111100010100001
1111011101010011
10100001
10011101010
1111111101100000
1111111101000001
10100001100
1111110011010001
111100011
11110011110
11001001101
11001101101
1000010010
1111101010101011
1111011110011010
1111001010111010
1111011100010101
1111101001001101
1111101011100010
1111100111100011
1111101111000011
1111111101000001
1111111111111011
111001110
1110010011
1111111100111011
1111100101011011
1111010000110010
1111110101100111
1111110111110100
10110001
11110000011
10000001001
1011011
1111110000
10010100110
101000011
100011011101
10110010100
10111001010
11000011010
1111001000
1111111100111001
1111011110110000
1111010110010110
1111101010110111
1111101000011011
1111101010011001
1111101001100110
1111110011101111
1111111001010100
1110011010
100111000
1111111000001100
1111110111000101
1111011110111010
1111101111110101
1111110010011111
1111111101111110
1111100110100110
1110111111
10000100010
1001010110
10000011110
1100011110
10101010101
1101100100
110101101
10100000100
1011010001
1111110110100001
1111110011010100
1111100100110100
1111110110010010
1111111101010111
1111100001110101
1111011111101000
1111100100111011
1111110011101001
1100010111
10000110001
1111110010111011
1111101101101000
1111110110011110
10011010011
11000100100
110
1111110011011101
1111110111111111
1111101111000000
1111111101101111
10100100000
1100010111
111000010
1000100110
1000000010
1100010001
10010111001
10100100010
1000001
1111110110010011
1111110011111100
1111110001001011
1111110000110011
1111110100111000
1111101110011000
11101001
1010010001
1111111110010001
1111101111100110
1111100001111011
1111111010001101
10001110101
11001111101
1111111011111011
1000010
1111101011111100
1111000110110100
1111100111000010
10101011000
1111111111000010
10001000001
100100110101
11010010101
10010000110
10010101000
10011110
11011
1111111001000010
1111111011010000
11100
1111111111111110
1111111000101100
1111100011011010
1111010010001010
1111001111010011
10010100110
11000001010
11111011
1000110001
1111101000011011
1111111101001011
100000
1111111110011010
1111100110100000
1111001001001010
1100101101
101000101
10101011010
1101100001
11010110000
100101011111
11010011111
10000100110
11100111010
101101011
1011011100
101001010
1111100010001011
1111101110110000
1111100111110111
1110111100100101
1110110110101001
1111001111011110
1111111010000100
1111110010011111
1111100100101001
1110101011
1111111011011101
1111111100000011
100101101
1111111110110111
10101010000
1111100110101010
1111101011101111
1111010101111111
1111100111111011
1111011001111110
1111011010100000
1111010001111000
1111101011111111
1111100110101111
1111000001101001
1110101100101011
1110011101010111
1110000110100110
1110001010100001
1110011101101111
1110011101001010
1110100001101100
1110100101101000
1110110001000110
1111001010000011
1111011101111101
1110111110010110
101110000
1011001
1111111110010001
1111111111000001
10110001
10000011
1101110010
11101001100
1010001111
1111111011011011
1111100000001011
1110010110011011
1110101010110000
1110110111111101
1110111111110111
1111001001000000
1110001111111001
1110000001111010
1110000111000001
1110001100110101
1110110011101001
1111000100000001
1111010110111111
1111000011101100
1111011011110101
1111011010110001
1111111010000100
1111111101011110
1111110111111000
1111111101000110
111111
1111111010101010
1111111011101111
100101011
1111111111011100
1111111010001111
1111011100001100
100100110
1111111100000111
1111100111010100
1110111110111011
10011110
1111111011111000
1111101001111000
1110111110101110
1111100100100010
1111111000101011
1111100000100011
1111000010010010
1111101110111100
1111000001
1100
1111011100110111
1111011101000011
1111100001101001
11001100
1111111011011001
11011111
10000000
