1111001000101100
1101101001
1111111110110001
1111111001010010
11010100010
1110000101101000
1111100111010101
1111010101011011
111010111100
11110111011
1001011011010
1110111100011010
11110101
1111010010010110
1111110001101101
1111101000010010
1001111100101
1110111100
10000001100
10000000010010
11110101001
1101111100010111
1111101001011001
1110111101000000
1111011100100110
1110100011001110
10000011000
10100011000
1000101110011
1111100100101001
