1111001011110001
1110111110010100
110101001110
1110011101011111
10111101001
1110000010100011
1111001110100110
1000001000101
110110111011
1001010011100
1111110111111111
1110101111110011
1111111010000001
1111111101011010
111001111101
11011001
11100101011
1111101110001100
1111111011011011
1101110010111101
1110110011000001
1100011001110
1111101101011101
110110011100
1111100100110101
100010101010
100101001010
1111001101101011
1111011111000010
1101110011001110
