1111001010100011
1110100010010011
1111111010100010
100001010101
1011001000011
1010110001
100011110011
10111101101
10110110101
101100001111
10001010110000
1110111101111100
1111011101011000
1110111111101010
1111100101011001
100100011
1111100101100
100111000010
1111100011001101
1011011100101
1110011110
1111101111111011
1111111110010011
1111010000010101
1111010101110101
1110110101111001
1111110000110111
100001001000
100110111100
1110111001000100
