1111001010100011
1001110001
1111110100001110
1100100111
111101000
1110111110110101
101011010
1111000001010100
1111010000010010
1111101001011010
1111111100111010
1111010110111010
10000001111100
100100111100
1111001011110111
1000101111011
111100001111
101110000110
1001100100110
1111000100000001
101011001101
1111111110110010
11001110010
11011110100
1111011100101001
101101000001
101000110111
1111010011001110
1111010000001110
1111100000110101
