1111000110111011
1010000110
1111010101111110
100111011011
11101000100
1110000100010011
1111010010011011
1110100111000001
111001010101
1111110010110001
1011111101
1111001100111001
1001011011001
111001001
1111011000111011
1111101011000001
110000000100
101110110111
111010000000
1111011001110010
10111111000
1101000001001000
1111101100111010
1111111110111110
1111110010111010
1111111010110110
1001001001010
100111001
101110111100
111111101
