1111010111101011
1111010110111100
100011111100
1010010101000
1111101000010110
1100010000001
111000111100
1111011011101001
1111010010100111
1110111100001010
1111011110011100
1011100010
1001101100
1111111001
1111110010101110
1111111111110100
11000101100
100011001100
1111100101101011
100111100011
101011000100
1111000011001011
1000001000101
1110101011110100
1111001001110011
10111010111
111111110
110000000011
1111100111010011
1111110001111010
