1111101000000010
1110110110001010
11000010101
10111101011001
1111111101000010
1111101101010
101101100
1111110010101010
1111011010110100
1111010101101110
1111110110100111
1111001011001011
1101101011111
11000101011
1111010011110111
11110110011
1111111110111010
100011001001
11011011100
1111000001001111
1111110010100100
1010111
10101010000
110001111011
1111101110000111
101110111011
1100100101010
1111110011010111
1111100111110000
1111110001010101
