1111111011110000
1111100100111010
1111100100100010
1111101111110100
11011011101
100110010010
1111001001101110
101101000000
100101101111
111100000000
111110101010
1111110010010111
1111010110010110
1111100000101001
1111111111101110
1111101000001100
1111101001001111
1111101011001011
1111100101101101
1111001011101101
1110101110011001
1111111001011001
1111011010110110
111010100010
111000010001
1110111110011001
10001111100
1111011111100100
111100001000
1111011011101010
