1110101110011000
1000111001011
1001010011111
1111110000111010
1111000100111111
1110011111011010
1111100111001010
1111101110101110
1100010111101
11000110111
1111001011001101
1111000100100100
1111011011011000
1110100001100111
100100100001
10010010101
110111000100
1111110001101110
1111011111110010
10010110010101
1011111101111
1111011000011101
1111111000010111
11000111110
1111111001000001
11111001010
1111111010001000
1111011011101001
111010111
1111110000000011
