1111101110011101
1111111000
1111100001101110
1010111011001
1111100001000000
1110101000010000
1111100101011010
1110100100001010
110110011001
1111001100110011
1111110010001110
1111011111110000
1011111001010
1111101010
1111011111011011
100111
11110100101
1000100001111
110010001000
100101100
1001001010001
1101111010111010
1111110101010100
1111110101010101
1111101100110010
11010001000
1000011000111
1111101000010010
10111011011
1111110001101011
