1111001111111011
1000000101
1000000101111
1111010001110001
1111010011110010
1110011011000100
101011001001
1111100101111101
1111100011001000
1110111001110100
1111001000101001
110010010
1111110010100101
1111110100010010
10000110101
1111111111110110
11101001010
100001111101
1010111111
111000000000
111011100011
1111101011011010
110100000111
1111001100111101
1110110010101011
1111111001000000
1111110010001001
101111111111
1110110101010100
1111100010101101
