1000111111000
1011000111011
1110001101111000
1111101101110010
1101010100
1111011010100110
1111011101000100
1110110111110010
1111101000111010
1111010100000000
1111101001110000
100100001100
1010111110101
1001011101010
1111001111000101
1111111110110101
1111101001001001
10110100
111100111011
1110000011000011
1111100010100101
1111000110110011
100000110110
11110100100
10100110110
1111111010110011
100011000000
1111110111001010
1111101110001101
1000010001100
