1111101000101010
1000001011110
1110010011101110
1010010101000
1100000000010
1111110111000001
1111111010110010
1110100111110111
1110110011110100
1111000001010110
110000010100
1111101010110110
101001110111
11011111011
1110100011101100
1111110011010010
100010111100
10011011000
101011110110
1110010011110000
1111100111101111
1110011100011010
10110111
1101111111
1110110000
1110101101101010
1110110011
1110101111
1111100100001010
11010101
