100111101001
1111101011110011
1011110100
100010111100
1111111000101001
1000000011111
1100010010100
101011000111
1111000101001101
1111010010110011
100010011010
11111011010
1110011011010111
11000000110
100001110010
1111001101011001
1111111100101001
1111111000000101
1110101011111010
1011111110111
1111101110101111
1111001001000111
10001011001
1110100111010000
1111110111111000
1111101110010110
1110110001001000
111100110010
100110010
11100
