1111110000010001
10001101111011
1111110010100000
1101111101001000
1111011101001111
1110000010111010
1111110011011010
1111100000011000
110011000110
11000111000
1110100000111010
1000000101100
1111000011101011
1111100001100011
1100000100010
10100100111
1111101000010110
1101100
1111101001011010
1111111000001101
1111001111101010
1111111100110010
1111111010111110
1111111110110001
11011001101
111101100001
1111010110100101
1111101010101011
1111110110100100
1111101110001110
