1000100000110
1001001100101
1110101111010011
1110011100010010
11110101000
1110011110101011
1111001111001101
1111100011001011
110011011010
100110011100
100010111001
111111110100
1111100000111100
1111111000000111
11001001
1110110000000011
11001101
11000001
1111111100011101
1010001010001
101100101
1110111101000111
1110111001000110
10110111110
1011100111
1111000000100101
1111011011011110
1111001001010111
1011111100111
101101010000
