1111111011101100
1111001111011100
10000000011
10010101001110
1111110010001010
1111110100010
111111001011
1111001101011001
1111001110000101
1110100010100000
1111010000110011
1111110001100110
10110011101
10000001101
1111100011010010
10010
1111101001111110
10100010
100001100
1111110111010101
100101010010
1111011010110001
101000001010
1110101100101100
1111101000000100
11010001001
11111111101
110110100101
1111011100011110
101000000110
