10010100001
111000110010
1111110011000100
1101010101111101
1111100010111000
1101101100010100
1111000
101111011101
10100011
110110011010
1000101011
101010100010
1110100000001100
1111010010011110
111111010001
1111100111011001
1111011101100101
1111000101110101
1111011101100001
101010010111
1111111010011000
1111110010111001
1111110010101011
1111101110001011
101010011
111100010
1110110010111111
10011010110
1111011111110101
1111111100100010
