1110110000001001
1001101001
1110100010001010
1001111100111
1010100010111
10000011111000
11000100
1111011111100000
1110010011001011
1111001100011110
110110001010
1111110101101101
110011001000
110100110100
1110101110011010
101001011100
1100010101
1111110100111110
101010101101
1110000010011110
1110101100101101
11110011110
100110100101
101101111
1111110001010010
1110101010001111
10110010101
100010011101
1111010101110011
11111100
