1111001001100110
101011
1110110100
1110001001000100
101001101100
1110100001011001
1111011110110001
101001111101
1101010000
1101011010001
10111000111
1001100010
1110100110110011
1111010100111011
101011111010
1111111110101001
1111111001101000
1111010010001001
1111110000000100
1111011001101000
1110111101111010
100111101000
1000101011
111111011010
10100110111
1111010110001011
1111101000101010
1111110001001001
1111110101010111
1111010111110010
