1010000100011
1111000000001111
1111100001101101
1111100000101000
1111111100
10000110100111
11001111
111111001110
1110000101101101
1000010010
1100110101
110111100110
1111110010000010
1100110111
111000101
100001011111
1110100111101111
1111011101011111
1111100101101100
1111000100001001
1111001101010100
1010111000101
1111101101100001
101110111000
100010011011
1111111101111111
1111111110011001
1111011101101011
1111010001001011
100111111010
