1110111010111
111001101111
1111001100011011
11100
11010010101
10001011110000
1111100100001011
10100101001
1111011111100100
101011111
100001001110
1001001001010
10100110101
1111101101111111
1111010100110100
1111010110100000
1111100000001011
1111100101000111
1111111111011111
101001001
1111100001000010
11100000111
1111000010011000
100111110110
101100011001
1111001001011000
1111110111110100
1111100101100011
111010010110
1111101100101
