1000000010000
11101010
1111110000111111
110110101001
101111100
1100001111110
1111101101000010
110010100000
110011011111
111100101
10000111
111010010100
1110110000000111
1111011010010111
11100101111
1110101101010110
1111010010001100
1111001100111011
1111001101100000
1001001110001
1111011010011100
1111001101011111
1111001101100111
1111111010100110
101101010011
1111010001001111
1111000101101001
1111111110011001
1010010000101
1010110001010
