11010110001
1010010100
11100101101
1111001101001001
10001100001
111001101011
110101110011
110000101010
1110010
100010111010
1111110011010011
1000110010011
1101010100101010
1111011000000110
1001100001000
1111011001111000
1111010100101101
1110111100101100
1110101011001101
101110000000
1111001110111011
1111101111010100
10100000110
1111101110111000
1100010001
1111110110100100
1110110111000011
100001111001
101110101010
1111110111010111
