111100000000
1110100100101110
1000100011001
110000000
1111110111000000
100001110011
1011010000001
1001000000110
1111001100011101
1111111000001100
110000010000
1111111101110111
1111100000110111
1001111001
100010010111
1111000110001000
1111111100110101
111001101
1111001001010010
1101010100100
1001101101
100110101101
1111101011011010
1111100111001101
1111100111000111
10100110
1110111111000101
1001101100010
10101000
1111011010010101
