1111011110111001
111000100101
1111100001001111
1111101011000011
101100010011
1010101100111
1111001101100011
10001111010
111011011010
1011000011000
1111111000101101
101111110111
1110101101100100
1111100011100111
111110100010
1000010100
1111101101100011
1111000101011010
1111101110111111
1111010111001010
1111010001001011
10101100000
1111110001011011
111110100000
111101011000
1111111100100000
1111110011010010
1111011101001010
111010000001
10100001100
