1110100000011001
101001001010
100100010111
1111101110010101
1111010011100100
1111100000101001
110001011010
1111111000011111
1111111110110010
1111010011110100
1110011101011000
100011000010
1111010110111101
1111001100110110
10100001011
101101110011
1111110110010111
1100110100
1111101111100111
111010001110
110011000101
1111111011001100
111100111101
1111000001101101
1111001010100110
110011000100
1111111010010010
10101000001
1110100111111010
1111011100110010
