110111000001
1111011111010101
1110111010111011
1111010101100001
101000011111
1111110111001011
1110111101110100
100000100010
110100111000
111010000001
100111
10000001110
101000000100
11111010010
101011110000
1001000001
1111011001111101
1111111011111010
10000011011
1101000100001011
1110011001111101
11001100111
1111010101111010
1001000111111
101010010011
100000111100
11000111101
1111001010110001
111100000101
1111010111100100
