1111010001111110
111011001110
1111011111101000
1110111000011011
1100100111
1110101100000111
1110111011011010
1111101010010101
11110010010
101000001010
1110110001010101
1111111111110101
1111111110001100
1111101111110111
11101110000
10111001010
10000110010
10111111001
111110011110
1100110011010010
1110100101110011
11111100110
1010001011
100010010110
110110001
100101010
1001001101101
1111000101111001
10001001
1111011111011000
