1000111111000
101010111111
1110110000010010
110101101100
101110110111
101111001000
1111111100101111
1111101001010100
1110111101100100
1111010000010111
1111110011101011
111010100111
1000000110110
1000110111111
1111011010011111
11001101
1111001110101111
11001000000
110011001111
1110000101100101
1111000101011000
1111100101110101
110010100
11000111010
10111111
110111100
110100011
1111111011011110
1111101111011010
11011101100
