1111000110001101
1111101001111100
1100001010
1011111101111110
111101101111
1111111010100110
10001011111
1101001011011
1000
1101010001011110
1001001111
1111010111110000
101100010010
1111111110110100
1111101000010000
1001110100010
1111001110010101
110100001101
1111110100010111
1110010001111100
111011100010
101000011100
1111111011110101
101100110110
11000011
10001101010001
1111100001001100
10000111011
1101110101111000
1111101000011110
