1111000011101100
1111010010101001
1110111111111001
111110110100
1111000010011011
1101111001101
1111101000000101
10110010111
1111101001010101
1111011011011010
1110111001011001
1101011010111
1100101011
1111001010100000
111011011
1001001111110
1110000000000101
110110111011
1111100100101101
100001001111
10011100100010
1101110101
1110110100010110
1111101010110011
1111101010010011
1101101000011
10010110011110
1111110010100100
1111000011010110
110100110110
