1010100010001
101000001110
1111001011010001
10001101110100
1111101010100101
1111001001111011
1010100100100
1101111000101111
100011100110
10001011110111
110100101001
11111111101
1001100100010
1111110001011011
1000110001010
1110101000101000
11000010010
100001010001
1111111010010111
101010111010
100101111001
1110101010001110
110011101
1111010011001000
1111011110000100
1110010001110010
1000110100100
1110010011101
110100111101
1111000111011001
