1111111011110110
1111101011111010
111101000111
100011000010
1100110110100
10000100110010
1110011000000011
1101000000
1111101110110000
1111010011001010
111010001100
10101010000100
1111010010101100
1110111100101101
1111111101011000
101010011
1110010011100101
100001011000
1110110111001
10011001111
10010111011000
1011001010101
10011100100
110000001100
1111011111000100
100101110011
10000100000111
1111111110110111
1111110010101001
1111001101100111
