1111001101010110
10001000100011
1000001001000
11000011011101
1111011101000011
1101100
1101111111011001
10000110001
1111111011110001
10010000100001
1100011110011
1011110011101
1111001111111010
1111111101011100
101110001011
10011101101
1010111111011
1110011100011101
1111100110100010
10100110010110
1110101111101101
111010000
1111000101000110
101011011010
111000110
1111010110010011
1110001000
1111010100100001
1101101011010
1111111111010011
