101111010010
1110101101111101
1110011101001011
1111100001000010
111101001110
1110101101000010
10011000111010
1001110100001
111110110101
1111001101010001
1110110110101110
1111001101100111
1110110001000
1111011000101001
1111111111101
111101011110
1000
1110010100110101
1111011000101001
101110010110
1111001001001101
1111011010111010
1111010110100111
10111010100110
1110110110010
111010000
1111010001100110
101001011
1111111000111100
1111110100001110
