1000010100011
1111110011110011
100100000101
10011100111
1101101100011001
10000110100001
1011111101110
1111010101011000
1111010011000001
1111101101011111
1110100100101100
11011000
1111011100111101
1110001001101
1110001010000001
1111111100111011
1110111100001111
111101100
1101111000101101
110010100011
111010100100
11100100
1110110100000110
1110110101011001
10010110111001
1011011101
10001010110010
1111111001001010
1111111100111010
10001010000000
