1111000101101110
1111101110011111
1111111100100111
1111100111110101
101100110111
1111011100011010
11100011000
1111100110011011
1110111011010101
10010100100
100010010
1111101100000001
1111110100001100
1111110001011100
100001001
111000111011
1000001110011
1101011001100
1000010001110
1110110010111001
110000010101
110011101110
1111111000001
1110101110010110
1110010010110011
1111011000101110
1110101111010100
110101111
1111011001010101
1111111000111100
