1111111000011101
1110101110101000
10100010100011
11100100100
1111011011111000
11111011110
110000011000
1000000000101
1111001100110110
1100110111001
1110111000010100
1101010111001110
1111110001101110
1111000000001
1110011000000000
100100111110
1111111000101101
101101110101
1111111001010001
1111011001111111
100010000100
10001110010010
110011111
1110100010100001
1111110100111000
10010111101
1001000100
1111111100011010
1111101101001110
1011100100100
