1110100110001100
1110011101111010
1110001010101
1111110100100100
1011100000
1010110110
1111011101101111
10010010111111
1110011011011001
1001011001
1101100111010110
1101110110010000
1111010000010111
11110011101
1000001111
10010010101100
1111110101100100
1111101000111011
1001111110011
1111110101010011
1111110111010000
1100000011001
110101001011
1111100001010110
1111100110000001
1011110
1111101011011111
1110010010001010
101101011
1000000111110
